<unk>	0
<s>	0
</s>	0
,	-1.93622
。	-3.29459
▁	-3.82353
!	-4.23464
的	-4.30419
了	-4.86684
.	-5.3958
?	-5.64611
我	-5.72151
是	-5.76664
、	-5.77538
和	-5.87075
就	-6.07866
在	-6.08961
有	-6.13501
也	-6.25781
就是	-6.2872
都	-6.31116
还	-6.31186
但	-6.33421
但是	-6.37843
而且	-6.40584
没有	-6.43138
(	-6.44539
酒店	-6.48979
啊	-6.49418
;	-6.52235
:	-6.53464
好	-6.55997
2	-6.56446
还是	-6.57867
3	-6.579
吧	-6.6009
不错	-6.70582
不	-6.70885
到	-6.75447
感觉	-6.76942
房间	-6.77302
不过	-6.7785
要	-6.84879
用	-6.86828
说	-6.87376
一个	-6.89281
可以	-6.93939
个	-6.93968
“	-6.94494
!!!	-6.96199
月	-6.96256
呢	-6.99021
京东	-6.99233
后	-6.99714
4	-7.01117
”	-7.0244
还有	-7.02814
5	-7.03731
这个	-7.05146
)	-7.0723
上	-7.08554
这	-7.0861
......	-7.09678
你	-7.10962
元	-7.11901
时	-7.12805
很好	-7.14475
又	-7.14778
1	-7.15412
所以	-7.15572
吗	-7.16994
看	-7.17005
去	-7.1774
我们	-7.17747
大	-7.18554
点	-7.18759
年	-7.20256
没	-7.20504
日	-7.21106
来	-7.25505
手机	-7.2553
*	-7.25911
很	-7.26374
现在	-7.27131
因为	-7.27169
对	-7.2811
自己	-7.29081
多	-7.2955
人	-7.29691
都是	-7.30522
结果	-7.30899
买	-7.31464
买的	-7.31992
比	-7.32262
苹果	-7.33569
小	-7.3388
10	-7.34696
一样	-7.35224
他	-7.35407
一	-7.35673
会	-7.38258
与	-7.38863
才	-7.39757
的时候	-7.41356
不是	-7.43741
6	-7.43919
。。。	-7.43966
给	-7.44288
从	-7.44629
!!	-7.46539
服务	-7.47376
中	-7.48007
虽然	-7.4859
等	-7.49419
差评	-7.50264
...	-7.50573
只是	-7.51758
天	-7.52966
很多	-7.53264
可	-7.54677
东西	-7.56022
再	-7.57552
只有	-7.58395
~	-7.59218
那	-7.5942
7	-7.60523
8	-7.61013
跟	-7.61483
下	-7.61566
得	-7.6161
如果	-7.61809
一般	-7.62218
而	-7.63154
差	-7.63655
哦	-7.64255
能	-7.64424
早餐	-7.64937
把	-7.6549
已经	-7.65579
G	-7.65693
蒙牛	-7.66403
也是	-7.67687
屏幕	-7.67704
还可以	-7.68912
真的	-7.70183
不好	-7.71317
以后	-7.72291
》	-7.72544
系统	-7.72555
为	-7.73474
什么	-7.74126
过	-7.74754
),	-7.76137
这次	-7.77336
宾馆	-7.77499
晚上	-7.77952
《	-7.78358
太	-7.78566
有点	-7.79919
价格	-7.7995
这样	-7.80805
连	-7.81136
客服	-7.81817
还不错	-7.81859
希望	-7.83137
里	-7.83294
▁:	-7.83593
被	-7.83754
真是	-7.83905
发现	-7.84414
包装	-7.85107
的话	-7.85759
▁我	-7.85836
啦	-7.86245
卡	-7.86746
比较	-7.8709
喜欢	-7.87333
她	-7.87695
好评	-7.88742
问题	-7.902
前台	-7.90623
他们	-7.90627
12	-7.90656
觉得	-7.91175
这本书	-7.91694
里面	-7.92136
居然	-7.92636
书	-7.92749
呵呵	-7.93364
20	-7.93783
想	-7.93877
使用	-7.94008
不知道	-7.94587
点评	-7.94693
味道	-7.95096
都没有	-7.95199
另外	-7.9522
入住	-7.95587
可是	-7.95687
很不错	-7.95942
一点	-7.96742
～	-7.96887
吃	-7.97888
9	-7.98197
的人	-7.98408
垃圾	-7.98499
很喜欢	-7.99009
却	-7.99019
服务员	-7.99035
买了	-7.99418
快递	-7.99463
XP	-7.99606
一下	-7.99857
质量	-7.99895
让我	-8.00042
▁不错	-8.00289
地	-8.01167
住	-8.01611
功能	-8.01984
号	-8.02372
然后	-8.02879
非常	-8.03048
应该	-8.03129
分	-8.03273
只	-8.03454
快	-8.03897
一直	-8.04072
看到	-8.04138
▁2008	-8.04232
怎么	-8.04359
你们	-8.04405
▁苹果	-8.05015
真	-8.05264
无	-8.05686
需要	-8.05825
裤子	-8.06327
它	-8.06461
送	-8.06471
很满意	-8.08745
更	-8.09279
/	-8.09682
用了	-8.09857
可能	-8.10203
时间	-8.10419
水	-8.10654
30	-8.10727
像	-8.10773
华为	-8.11093
支持	-8.11788
最后	-8.12167
呀	-8.12567
产品	-8.12687
也没有	-8.13325
补充	-8.13471
不能	-8.13717
装	-8.1491
建议	-8.14981
11	-8.15002
给我	-8.15219
那个	-8.15514
有些	-8.16962
一些	-8.17007
其实	-8.17203
的感觉	-8.17567
货	-8.17593
水果	-8.17886
平板	-8.18193
非常好	-8.18528
做	-8.18664
其他	-8.22129
后来	-8.22608
电话	-8.22803
▁差评	-8.23108
以	-8.23594
打	-8.23839
直接	-8.23968
选择	-8.24163
总之	-8.24288
最	-8.24399
方便	-8.24995
楼	-8.25059
孩子	-8.25321
着	-8.25671
之后	-8.26133
一次	-8.26245
竟然	-8.26353
对于	-8.26494
除了	-8.26658
开	-8.27655
只能	-8.27734
▁酒店	-8.28582
电池	-8.2873
M	-8.28766
出	-8.28885
特别	-8.29008
这是	-8.29373
物流	-8.29376
并	-8.29633
或	-8.29699
满意	-8.31155
100	-8.31234
及	-8.31549
好像	-8.31999
衣服	-8.3238
洗发水	-8.32426
发	-8.3333
颜色	-8.33457
▁裤子	-8.33524
让	-8.33758
放	-8.33833
▁1.	-8.34297
带	-8.34656
内存	-8.34925
还好	-8.35172
15	-8.35972
全	-8.36118
"	-8.36532
分钟	-8.36568
之前	-8.36707
便宜	-8.37309
的东西	-8.37914
开始	-8.38599
第二天	-8.39162
我是	-8.39376
客人	-8.39885
这种	-8.39914
两个	-8.40287
质量不错	-8.40315
让人	-8.4059
的书	-8.41145
要求	-8.41753
我的	-8.41808
的地方	-8.42049
换	-8.42122
说是	-8.42357
并且	-8.42367
如	-8.42607
高	-8.42645
还行	-8.43253
购买	-8.43418
确实	-8.43491
618	-8.43983
键盘	-8.44289
很方便	-8.44624
挺好的	-8.45162
完全	-8.45366
显示	-8.4539
实在	-8.45875
效果	-8.46259
本	-8.46368
老	-8.46459
推荐	-8.47942
星	-8.4894
已	-8.49408
评价	-8.49425
-	-8.49635
今天	-8.50141
内容	-8.50407
次	-8.50432
哈哈	-8.50446
200	-8.50976
前	-8.5117
子	-8.51455
???	-8.51547
机	-8.51652
机器	-8.51852
先	-8.51966
差不多	-8.51969
软件	-8.52017
打开	-8.52104
新	-8.52156
为什么	-8.52279
反馈	-8.52983
特别是	-8.53111
好吃	-8.53354
离	-8.53773
作者	-8.53982
的酒店	-8.54732
出来	-8.54846
携程	-8.54951
么	-8.5496
MP	-8.55202
!!!!	-8.55246
活动	-8.55582
这么	-8.55596
或者	-8.55919
声音	-8.56073
爱	-8.56074
第一次	-8.5616
不行	-8.56944
朋友	-8.56971
质量很好	-8.57035
的问题	-8.57055
也不	-8.57072
用的	-8.57123
当然	-8.57461
房	-8.5785
当	-8.57956
有问题	-8.58261
那么	-8.58292
看着	-8.58418
一天	-8.58554
且	-8.58787
将	-8.58998
之	-8.59005
尤其是	-8.59685
环境	-8.59812
车	-8.59939
▁1、	-8.59947
卫生间	-8.60392
块	-8.60526
由于	-8.60582
设计	-8.60598
好用	-8.60613
估计	-8.60642
以前	-8.61017
16	-8.61299
还要	-8.61301
大家	-8.61479
商品	-8.62033
少	-8.62171
设施	-8.62199
不要	-8.62461
失望	-8.62671
电脑	-8.62693
不会	-8.62759
到了	-8.62793
外	-8.62808
~~	-8.6285
三	-8.62963
赠品	-8.63022
玩	-8.63088
大小合适	-8.63224
早上	-8.63276
很差	-8.63466
坏了	-8.63537
值得购买	-8.63653
都有	-8.63702
餐厅	-8.64097
非常满意	-8.64191
**	-8.64223
穿	-8.64267
小时	-8.64322
商家	-8.64466
??	-8.64496
些	-8.64715
走	-8.64931
机子	-8.64963
这些	-8.64979
空调	-8.65029
的房间	-8.65222
钱	-8.65401
▁很好	-8.65825
反正	-8.6589
回来	-8.65891
是正品	-8.66012
本来	-8.66362
找	-8.66462
铃声	-8.66809
基本	-8.67028
)。	-8.67215
问	-8.67264
外观	-8.67485
酒店的	-8.67717
请	-8.67762
很大	-8.67838
80	-8.67877
退货	-8.68533
▁垃圾	-8.68713
没想到	-8.68736
▁京东	-8.68842
按	-8.68903
烂	-8.69101
图片	-8.69243
加	-8.69387
听	-8.69465
上网	-8.69643
也不错	-8.69689
卖	-8.69707
是不是	-8.70084
的是	-8.70157
挺	-8.70509
心	-8.70952
不到	-8.70995
来说	-8.71453
售后	-8.71484
下次	-8.72087
当时	-8.72343
原来	-8.72687
床	-8.72755
看看	-8.73262
这里	-8.73302
▁质量不错	-8.73617
新鲜	-8.73777
看了	-8.74068
无法	-8.75891
也没	-8.76342
甜	-8.76385
收到	-8.7662
g	-8.76654
谢谢	-8.7692
叫	-8.77035
我觉得	-8.77392
太差	-8.77405
应该是	-8.77498
刚	-8.77799
其	-8.77907
家	-8.77994
二	-8.78313
打电话	-8.78659
赞	-8.79017
安装	-8.79435
多了	-8.79455
发货	-8.79598
处理	-8.79632
花	-8.79877
头	-8.80796
我想	-8.8086
于	-8.8088
拿	-8.81057
配置	-8.81109
游戏	-8.81261
▁还不错	-8.81551
▁蒙牛	-8.816
那些	-8.81622
▁不好	-8.81744
太差了	-8.82071
生活	-8.82306
写	-8.82465
摄像头	-8.82528
A	-8.82653
成	-8.82665
性价比高	-8.82686
很快	-8.82736
N	-8.82948
门	-8.83189
作为	-8.83239
50	-8.83737
客户	-8.83742
送货	-8.8389
40	-8.84502
不一样	-8.85021
屏	-8.85121
头发	-8.85454
24	-8.85796
干净	-8.85825
假货	-8.86124
读	-8.86126
很舒服	-8.86391
算	-8.86449
这样的	-8.86629
做工	-8.86723
装修	-8.86788
条	-8.86938
嘛	-8.87057
别人	-8.87547
手	-8.87817
▁衣服	-8.8784
很好用	-8.88003
C	-8.8804
故事	-8.88253
看起来	-8.88261
经常	-8.88292
慢	-8.88569
必须	-8.88688
明显	-8.88955
满	-8.89607
速度	-8.89641
大堂	-8.89759
不够	-8.89854
才能	-8.89887
如此	-8.90055
卖家	-8.90142
实在是	-8.90352
工作	-8.90536
退房	-8.90617
还没用	-8.90761
所有	-8.90843
电视	-8.9107
麻烦	-8.91121
还不如	-8.91175
长	-8.91252
位置	-8.91313
评论	-8.91857
地方	-8.91859
▁房间	-8.92003
也就	-8.92373
本人	-8.92545
左右	-8.92745
方面	-8.92756
▁东西	-8.92941
重	-8.92975
——	-8.93136
真的是	-8.93229
同	-8.93249
适合	-8.93282
可能是	-8.93311
态度	-8.9332
近	-8.93491
贵	-8.93509
起	-8.93617
个人	-8.94213
肯定	-8.94255
mm	-8.94269
各种	-8.9432
包	-8.94488
毕竟	-8.94492
驱动	-8.94509
洗	-8.94543
为了	-8.94606
赞一个	-8.94846
大小	-8.94865
两	-8.94869
这款	-8.95026
舒服	-8.95119
几个	-8.95289
讲	-8.95389
还是不错的	-8.95539
度	-8.95573
以及	-8.96101
面	-8.96174
哎	-8.96263
店	-8.96566
购物	-8.96876
别	-8.96878
性价比	-8.96923
总是	-8.96998
唉	-8.97171
口	-8.97219
我就	-8.97313
严重	-8.97377
很漂亮	-8.97499
说明	-8.97505
内	-8.976
值得推荐	-8.9766
品牌	-8.97745
所	-8.97787
不如	-8.98111
每天	-8.9816
口感	-8.98246
很新鲜	-8.98396
盘	-8.98476
只要	-8.98521
500	-8.98521
快递员	-8.99024
您	-8.99078
起来	-8.99228
该	-8.99268
郁闷	-8.99451
目前	-8.99467
硬盘	-8.99647
超市	-8.9983
不方便	-8.99893
也有	-8.99943
掉	-9.00185
比如	-9.00491
下午	-9.00909
还没	-9.00918
可惜	-9.00964
简直	-9.00996
有一个	-9.01302
穿上很舒服	-9.01723
不用	-9.01879
中国	-9.01966
不说	-9.02135
下单	-9.0228
也可以	-9.02287
上面	-9.02309
T	-9.02573
免费	-9.02695
xp	-9.02757
事	-9.02798
同时	-9.0288
不满意	-9.02951
。。。。	-9.03428
够	-9.03491
每次	-9.0371
好多	-9.03819
准备	-9.04118
根本	-9.04189
饭店	-9.04215
通过	-9.0426
就好了	-9.04439
白	-9.04634
操作	-9.04636
▁这	-9.04677
不同	-9.04701
学习	-9.04751
绝对	-9.04793
物流很快	-9.04819
正	-9.04882
X	-9.05334
漂亮	-9.05338
能够	-9.05351
我也	-9.054
很失望	-9.05422
非常不错	-9.05465
因	-9.05466
实惠	-9.05864
发票	-9.05881
真心	-9.06528
一条	-9.06565
毛巾	-9.06892
的苹果	-9.07195
马上	-9.07199
这点	-9.0721
总	-9.07235
强	-9.07241
有时	-9.07317
▁这个	-9.0742
书中	-9.07721
后面	-9.07724
声	-9.07846
主要是	-9.07922
于是	-9.08002
公司	-9.08031
价格实惠	-9.0814
70	-9.08265
外面	-9.08295
品质	-9.08328
正好	-9.08633
那种	-9.08638
的朋友	-9.08706
一本	-9.08807
实际	-9.08892
值得	-9.09009
不支持	-9.09031
还没有	-9.0905
大概	-9.09118
而已	-9.09141
选	-9.09282
简单	-9.0932
死	-9.09595
处	-9.09596
有个	-9.09611
介绍	-9.09806
单	-9.09847
运行	-9.09855
信息	-9.09872
充电	-9.09921
路	-9.09969
客房	-9.09998
+	-9.10102
个小时	-9.10155
正品	-9.10554
相信	-9.10627
感觉不错	-9.10645
很小	-9.10972
短信	-9.11172
什么的	-9.11179
文字	-9.11496
进	-9.11497
太多	-9.11533
三个	-9.1169
全部	-9.11733
宝宝	-9.11831
▁感觉	-9.11858
果	-9.11861
阅读	-9.12005
不知	-9.12018
卫生	-9.12023
出现	-9.12131
缺点	-9.1219
其他的	-9.12254
住了	-9.12344
回	-9.12422
25	-9.12559
挺好	-9.12562
管理	-9.12863
18	-9.1326
这家酒店	-9.1331
▁2.	-9.13329
喝	-9.13377
火龙果	-9.13614
整体	-9.1367
知道	-9.13697
十分	-9.13738
电	-9.13811
网络	-9.1399
洗了	-9.14226
。2、	-9.1428
不喜欢	-9.14428
线	-9.14445
菜	-9.14525
VISTA	-9.14623
牛奶	-9.14637
靠	-9.1464
买来	-9.14885
这个价格	-9.14929
至少	-9.14935
一看	-9.14948
过来	-9.15023
坏	-9.15046
速度快	-9.15115
D	-9.15297
都不错	-9.15416
快递小哥	-9.1549
值得信赖	-9.15648
14	-9.15755
部分	-9.15774
感	-9.1587
正常	-9.15897
如何	-9.16015
要是	-9.1609
还有就是	-9.16523
▁买了	-9.16649
整个	-9.16837
黑	-9.16929
首先	-9.17025
键	-9.17199
相比	-9.17218
吃了	-9.17267
心里	-9.17435
t	-9.1757
不足	-9.18085
投诉	-9.1821
没办法	-9.18293
硬件	-9.18313
▁东西不错	-9.1846
都没	-9.18594
标准	-9.18687
反应	-9.18764
开机	-9.18794
▁挺好的	-9.18892
提供	-9.19153
妈妈	-9.19169
物美价廉	-9.19174
告诉我	-9.1919
看来	-9.19387
退	-9.19454
码	-9.19498
电梯	-9.19728
拍照	-9.19828
生	-9.19833
谁	-9.19915
很好吃	-9.2002
向	-9.20111
间	-9.20152
300	-9.20287
房间里	-9.20407
这个酒店	-9.20432
四	-9.2048
体验	-9.20694
好了	-9.20855
版	-9.20897
搞	-9.21001
台	-9.21153
倒	-9.21493
价	-9.21496
倒是	-9.21522
~~~	-9.21637
拉	-9.21658
的确	-9.21727
京东自营	-9.21779
不大	-9.21822
!!!!!	-9.21933
不新鲜	-9.21949
▁2007	-9.22014
也许	-9.22039
也很好	-9.22153
儿子	-9.2217
超	-9.22175
就像	-9.2231
。3、	-9.22387
图	-9.22391
订	-9.22414
设置	-9.22432
一起	-9.22465
容易	-9.22503
800	-9.22617
低	-9.22642
似乎	-9.2273
象	-9.22752
很棒	-9.22757
的原因	-9.22849
去了	-9.22925
#	-9.23057
字	-9.2344
换了	-9.23548
两天	-9.23666
进行	-9.2367
而是	-9.2368
附近	-9.23711
性能	-9.23743
穿着	-9.23812
送的	-9.23856
期待	-9.23859
价格便宜	-9.23882
坏的	-9.24134
晚	-9.24137
人家	-9.24196
别的	-9.24497
▁手机	-9.24731
好看	-9.2485
哈	-9.24867
好的	-9.24949
全是	-9.24961
玩游戏	-9.24992
吃的	-9.25006
的价格	-9.25073
无语	-9.25109
话	-9.25371
色	-9.25484
甚至	-9.25533
几乎	-9.25572
美	-9.25616
比较好	-9.25768
▁很不错	-9.25923
网上	-9.26269
耳机	-9.26283
订单	-9.26374
许多	-9.26505
性	-9.26574
几	-9.26635
收	-9.26694
消费者	-9.26709
不少	-9.26753
变	-9.26835
过了	-9.27001
以为	-9.27011
画面	-9.27016
同事	-9.27082
一瓶	-9.27114
算是	-9.27384
舒适	-9.27426
。2.	-9.27457
最好	-9.27696
总的来说	-9.27697
该酒店	-9.27733
坑	-9.27921
热	-9.27968
非常喜欢	-9.28265
一件	-9.28311
不值	-9.28516
那样	-9.28576
是个	-9.28662
▁我是	-9.28997
音质	-9.29137
回复	-9.29208
见	-9.29301
脏	-9.29382
W	-9.29398
其它	-9.29438
洗澡	-9.29541
按键	-9.29579
设备	-9.29675
气	-9.29846
味	-9.30146
宝贝	-9.3015
还能	-9.30188
自己的	-9.30323
套	-9.30358
道	-9.30367
就在	-9.30422
套装	-9.30459
物有所值	-9.30462
特	-9.30529
边	-9.30652
房价	-9.30675
者	-9.30857
吃饭	-9.30974
米	-9.30989
难道	-9.31027
用着	-9.31096
来的	-9.31121
小的	-9.31456
vista	-9.31547
块钱	-9.31597
升级	-9.31684
服务态度	-9.31746
19	-9.31834
当天	-9.32019
平时	-9.32127
不好用	-9.3232
..	-9.32328
没问题	-9.32351
过去	-9.32486
▁好	-9.32629
降价	-9.32665
此	-9.32724
红	-9.32737
这家	-9.32942
下载	-9.33033
女儿	-9.33099
一张	-9.3312
400	-9.33153
联系	-9.33412
清晰	-9.33587
60	-9.33625
做的	-9.33761
照片	-9.33776
S	-9.33778
▁包装	-9.33853
关键是	-9.33921
出差	-9.3393
任何	-9.33953
行	-9.34001
预定	-9.3407
优惠	-9.34095
继续	-9.34117
本书	-9.34144
最近	-9.3419
32	-9.34197
弄	-9.34201
定	-9.34243
第	-9.34383
沙宣	-9.34414
早	-9.34599
安排	-9.34619
▁宝贝收到了	-9.34712
时候	-9.34717
质量好	-9.3474
13	-9.34837
B	-9.34849
配送	-9.34868
m	-9.35088
给力	-9.35196
等等	-9.35225
使	-9.35457
P	-9.35459
机身	-9.35467
进去	-9.35494
一定	-9.35566
刚好	-9.35607
更加	-9.3561
服务人员	-9.35656
皮	-9.36202
买回来	-9.36281
的味道	-9.363
一般般	-9.3637
是否	-9.36485
里面的	-9.36623
很一般	-9.36667
更是	-9.36803
很甜	-9.37033
很划算	-9.37058
服务很好	-9.3707
流畅	-9.37142
太小	-9.37156
老板	-9.37179
....	-9.37338
他的	-9.37345
学	-9.37354
光	-9.37539
价钱	-9.37601
儿	-9.37646
▁618	-9.37768
check	-9.37783
我在	-9.37813
干	-9.37985
的服务	-9.38107
服务好	-9.38135
个头	-9.38143
影响	-9.38378
看电影	-9.38401
随便	-9.38517
相当	-9.38533
下面	-9.38549
此书	-9.38611
的那种	-9.38634
昨天	-9.38748
了解	-9.38755
打车	-9.38913
斤	-9.38939
合适	-9.38944
否则	-9.39058
的声音	-9.39133
物流快	-9.39143
层	-9.39221
不是很好	-9.39246
小说	-9.39299
▁质量很好	-9.39306
三星	-9.39487
区	-9.39673
完	-9.3973
考虑	-9.39769
而且还	-9.39779
大床房	-9.3981
它的	-9.39816
关于	-9.39826
超级	-9.39911
▁3.	-9.40151
性价比很高	-9.40167
情况	-9.40207
稍微	-9.4028
75	-9.40354
不太好	-9.40671
多少	-9.40704
贴	-9.40716
改	-9.40936
入	-9.40985
开了	-9.41021
就这样	-9.41033
送货快	-9.41088
解决	-9.41129
件	-9.41141
21	-9.41155
再次	-9.41163
速度很快	-9.41182
未	-9.4125
超值	-9.41343
门口	-9.41402
维修	-9.41423
恶心	-9.41466
。3.	-9.41541
香	-9.41579
是我	-9.41582
接	-9.41624
张	-9.41705
味道不错	-9.4179
交通	-9.41801
假	-9.41805
导致	-9.41866
很少	-9.41945
跑	-9.4195
感受	-9.42006
视频	-9.42064
坐	-9.42288
配	-9.42438
自	-9.42442
26	-9.42619
由	-9.42626
没什么	-9.42771
下来	-9.42808
总体来说	-9.42936
22	-9.43062
▁假货	-9.43226
住的	-9.43302
穿着很舒服	-9.43308
看视频	-9.43469
总体	-9.4351
拍	-9.43523
这本	-9.43716
半夜	-9.43758
支持国货	-9.43789
出门	-9.4385
第二	-9.43966
包括	-9.43994
五	-9.44123
一定要	-9.44352
似的	-9.44387
一个人	-9.44418
因此	-9.44498
L	-9.44499
算了	-9.44507
▁快递	-9.44561
洗完	-9.44691
老公	-9.44739
相信京东	-9.44911
非	-9.45284
经过	-9.45302
牛	-9.45306
写的	-9.45319
17	-9.45621
到货	-9.45631
是坏的	-9.45646
服务生	-9.45676
也很	-9.45702
海	-9.45706
较	-9.45716
怕	-9.45817
距离	-9.46036
转	-9.46042
感觉还不错	-9.46061
花了	-9.46085
周围	-9.46101
23	-9.46128
USB	-9.46219
五星	-9.46275
用起来	-9.4639
才发现	-9.46457
没有色差	-9.46476
万	-9.46513
不像	-9.46572
如家	-9.46726
OK	-9.46865
酸	-9.4688
分辨率	-9.46889
看完	-9.4694
破	-9.47006
出租车	-9.47127
属于	-9.4713
京东的	-9.47181
让我们	-9.47187
信号	-9.47202
那里	-9.47262
不多	-9.47318
中午	-9.47414
不了	-9.47544
很近	-9.47625
唯一	-9.47852
播放	-9.47914
有时候	-9.48188
▁这本书	-9.48232
的时间	-9.48294
我都	-9.4843
站	-9.48514
们	-9.48559
那么多	-9.48564
的手机	-9.48653
两次	-9.4877
消费	-9.48989
来了	-9.49029
安静	-9.49055
不仅	-9.49256
即使	-9.49361
▁屏幕	-9.49369
K	-9.49512
不太	-9.49538
划算	-9.49576
确认	-9.49598
换货	-9.49676
包装很好	-9.49714
黑色	-9.49719
这套书	-9.49747
穿上	-9.50151
历史	-9.50181
款	-9.50199
▁裤子收到了	-9.50212
送到	-9.50251
都可以	-9.50253
只好	-9.50293
远	-9.50383
空间	-9.50428
好象	-9.50704
热水	-9.50773
难	-9.50943
第一	-9.50981
看上去	-9.51043
太小了	-9.5128
帮我	-9.51304
成功	-9.51321
不怎么样	-9.51345
原因	-9.51351
所谓的	-9.51353
清扬	-9.51404
给我们	-9.51408
错	-9.51562
不好吃	-9.51606
ml	-9.51662
尤其	-9.5172
▁物流很快	-9.51792
就有	-9.51837
散热	-9.51859
提示	-9.51906
:“	-9.51922
爽	-9.51932
几天	-9.51967
死机	-9.52034
箱	-9.52227
乱	-9.5225
尺寸	-9.52363
不舒服	-9.52471
还说	-9.5254
收到货	-9.5259
四星	-9.5266
其中	-9.52807
笔记本	-9.52935
岁	-9.53003
有很多	-9.53047
不想	-9.53079
色彩	-9.53106
有点小	-9.53183
优点	-9.53317
的产品	-9.53383
店家	-9.53385
▁还可以	-9.53791
给你	-9.5383
脆	-9.53914
很实惠	-9.53974
双	-9.54006
28	-9.5418
支持京东	-9.54258
太大	-9.54285
感谢	-9.54317
面料	-9.54573
油	-9.54631
▁这次	-9.54689
口味	-9.54716
就要	-9.54772
修	-9.54782
护发素	-9.54789
中间	-9.54824
很干净	-9.54949
s	-9.55108
物超所值	-9.5511
小孩	-9.55375
至	-9.55541
睡	-9.55724
房间的	-9.55811
头皮屑	-9.55895
第二次	-9.55935
浴室	-9.56018
山	-9.56035
***	-9.56045
心情	-9.56074
洗手间	-9.56298
作	-9.56343
一种	-9.56423
明明	-9.56457
热情	-9.56566
至于	-9.56692
量	-9.56763
▁因为	-9.56946
做工精细	-9.57076
我要	-9.57147
基本上	-9.57149
值	-9.57453
了吧	-9.57494
理解	-9.5752
外壳	-9.57539
▁没有	-9.57601
的事情	-9.57652
广告	-9.57669
联想	-9.57689
数	-9.57718
款式	-9.57861
房间设施	-9.57946
注意	-9.58041
旁边	-9.58131
及时	-9.58169
放心	-9.58281
硬	-9.5829
烂的	-9.58425
膜	-9.58459
会有	-9.58745
▁平板	-9.58785
▁外观	-9.59063
每	-9.5928
▁第一次	-9.59305
有的	-9.59314
听说	-9.59381
瓶	-9.59409
挺不错的	-9.59493
入住的	-9.59541
▁这是	-9.59543
家里	-9.59783
E	-9.599
没有任何	-9.60083
的裤子	-9.60109
就会	-9.60255
感到	-9.60339
掉色	-9.60353
都很好	-9.6045
很好很好很好很好很好很好很好很好	-9.60544
也要	-9.6066
被子	-9.60662
本本	-9.60693
就算	-9.60701
通话	-9.6073
加上	-9.60803
我说	-9.60834
▁in	-9.60862
标间	-9.60874
收费	-9.60959
▁物流	-9.60962
确实不错	-9.61157
下去	-9.6116
放在	-9.61312
表示	-9.61352
时尚	-9.61397
都不	-9.615
回家	-9.61512
世界	-9.61585
解释	-9.616
客服说	-9.61622
每个	-9.61643
他们的	-9.61689
晕	-9.61758
x	-9.61843
o	-9.61845
查	-9.61894
音乐	-9.61949
十	-9.61986
飞	-9.62009
工作人员	-9.62218
的样子	-9.62268
点多	-9.62313
搞活动	-9.62332
系列	-9.62345
自动	-9.62405
CPU	-9.62489
顾客	-9.62506
支持国产	-9.62543
一半	-9.62572
当当	-9.62668
▁裤子质量很好	-9.62717
感觉很好	-9.62791
拿到	-9.631
网购	-9.63113
牌子	-9.63155
不然	-9.63229
的故事	-9.63234
说话	-9.63286
窗户	-9.63354
决定	-9.63395
没有什么	-9.63499
水平	-9.63507
比超市便宜	-9.6369
布料	-9.63721
费	-9.63812
很合适	-9.63843
都要	-9.63854
又是	-9.63862
地理位置	-9.63867
拥有	-9.64057
表面	-9.64186
人员	-9.64243
▁1	-9.6425
n	-9.64355
灯	-9.6437
遇到	-9.64376
0	-9.644
果子	-9.64489
不管	-9.64525
地毯	-9.64554
床单	-9.64622
中的	-9.64659
上海	-9.647
阿	-9.64707
▁2、	-9.64714
不知道是不是	-9.6481
痒	-9.64819
大的	-9.6487
同样	-9.64916
试试	-9.65018
一样的	-9.65023
版本	-9.65152
的事	-9.65152
调	-9.65314
▁商品	-9.65321
▁虽然	-9.65341
看过	-9.65358
京东快递	-9.65379
还会	-9.65538
无奈	-9.65545
很好看	-9.65695
是在	-9.65764
:1、	-9.65785
”。	-9.65792
2.	-9.65902
才知道	-9.65958
。4、	-9.6607
瓶子	-9.66099
薄	-9.66202
门童	-9.6623
头皮	-9.66339
如果是	-9.66381
宽带	-9.66382
看见	-9.66403
习惯	-9.66454
烂了	-9.66475
穿起来	-9.66479
手感	-9.66511
都会	-9.66513
丰富	-9.66541
就可以	-9.66594
不能用	-9.66602
网	-9.66622
盒子	-9.66668
评	-9.66756
旧	-9.66869
太失望了	-9.66986
情	-9.67025
有人	-9.67027
几次	-9.671
?!	-9.67156
的好	-9.67265
U	-9.67404
实用	-9.67461
像素	-9.67461
显得	-9.67538
看电视	-9.6757
依然	-9.67648
应	-9.6776
另	-9.67782
令人	-9.67816
半	-9.67899
果然	-9.67992
蓝牙	-9.68038
包装完好	-9.68056
来看	-9.68126
31	-9.68206
提	-9.68261
还在	-9.68338
比较满意	-9.68454
一家	-9.68496
清	-9.68587
▁在	-9.68643
品	-9.6875
北京	-9.68879
前面	-9.68971
房间内	-9.69067
▁不好用	-9.6907
还算	-9.69082
更好	-9.6918
出去	-9.69235
看的	-9.69299
我也是醉了	-9.69382
一切	-9.69426
一边	-9.69437
终于	-9.69462
相对	-9.69475
很难	-9.69514
很有	-9.69521
走廊	-9.69559
用户	-9.6956
好在	-9.69624
大品牌	-9.69699
毛	-9.69784
便	-9.69838
我还	-9.69863
正在	-9.69991
流	-9.70023
都能	-9.70158
金	-9.70214
游泳池	-9.70264
这么多	-9.70277
▁太差了	-9.70415
安全	-9.70447
▁质量	-9.70664
怎么样	-9.70716
感动	-9.7073
比较大	-9.70768
地址	-9.70833
东	-9.70953
专业	-9.71092
送了	-9.71187
老师	-9.71211
文	-9.71338
不爽	-9.71368
三天	-9.71401
入住时	-9.71501
1000	-9.7156
～～	-9.71765
买东西	-9.71787
怀疑	-9.71791
进入	-9.71793
六	-9.71798
开心	-9.7185
的情况下	-9.7187
旅游	-9.71877
睡觉	-9.72047
页	-9.72099
送来	-9.72133
也能	-9.72226
物流也很快	-9.7223
嗯	-9.72275
这个价位	-9.72367
▁差	-9.72378
JAVA	-9.72453
交通方便	-9.72455
一间	-9.72469
我喜欢	-9.72508
风	-9.72525
突然	-9.72553
香味	-9.72596
员工	-9.72741
化	-9.72841
提前	-9.72989
根本没有	-9.73037
按照	-9.73464
tp	-9.73474
告知	-9.73526
房间很大	-9.73675
不甜	-9.73687
语言	-9.73806
上的	-9.73855
上次	-9.73903
商务	-9.73947
尽管	-9.73965
主要	-9.7401
一套	-9.74023
品种	-9.74064
显卡	-9.74065
之间	-9.74089
所有的	-9.74221
买到	-9.74239
样子	-9.74261
也好	-9.74295
▁为什么	-9.74335
却是	-9.74345
自然	-9.74408
冷	-9.74415
ht	-9.74518
噪音	-9.74518
找不到	-9.74623
享受	-9.74715
样	-9.74741
力	-9.74756
他说	-9.74815
效果不错	-9.7496
最多	-9.74965
27	-9.74974
▁非常好	-9.74978
不知道是	-9.7512
@	-9.75177
wifi	-9.75311
差劲	-9.754
穿着舒服	-9.75405
动	-9.755
提醒	-9.7557
回答	-9.75605
越来越	-9.75635
本身	-9.75659
蛮	-9.75668
个月	-9.75725
分区	-9.75757
就算了	-9.75857
物品	-9.7594
标准间	-9.75961
普通	-9.76093
箱子	-9.76199
冲	-9.76238
父母	-9.76241
之类的	-9.76275
幸福	-9.76362
完美	-9.76499
新的	-9.76543
穿了	-9.76622
29	-9.76659
接口	-9.76721
种	-9.76775
特别好	-9.76791
后悔	-9.76837
保护	-9.7686
法	-9.76902
想要	-9.76931
▁大小合适	-9.76968
我自己	-9.7698
联系客服	-9.77161
购买的	-9.77209
健康	-9.7727
物	-9.77276
▁不满意	-9.77316
▁一般	-9.77332
直	-9.77342
京东商城	-9.7739
收货	-9.77432
经理	-9.77442
貌似	-9.77519
沟通	-9.77539
女	-9.77889
个苹果	-9.77996
质量也不错	-9.77999
知识	-9.78008
陈旧	-9.78024
比起	-9.782
我很喜欢	-9.78244
真正	-9.78328
反映	-9.78372
啥	-9.78396
不错不错	-9.78439
星级	-9.78491
问客服	-9.78647
停车	-9.78711
现象	-9.7875
寸	-9.78814
经	-9.78838
奶	-9.78855
地点	-9.78865
▁就是	-9.78866
约	-9.78897
读者	-9.78931
--	-9.78952
肉	-9.78955
上了	-9.79001
送货上门	-9.79037
赶紧	-9.79072
西	-9.79094
越	-9.79137
还没吃	-9.79193
隔壁	-9.79224
▁4.	-9.79243
只有一个	-9.793
则	-9.79333
吃起来	-9.79412
还得	-9.79527
还是可以的	-9.79561
模式	-9.79629
非常棒	-9.79666
各	-9.79702
到底	-9.79745
带着	-9.79822
的态度	-9.79895
▁首先	-9.79976
输入	-9.80062
。4.	-9.8007
老公很喜欢	-9.80091
订的	-9.80155
光驱	-9.80315
无语了	-9.8034
信赖京东	-9.80364
老人	-9.80385
还有一个	-9.80402
周边	-9.80444
是一个	-9.8046
她们	-9.80465
坚持	-9.80487
在这里	-9.80496
一箱	-9.80616
翻	-9.80635
赠送	-9.80743
信	-9.80858
管	-9.80869
所谓	-9.80981
关	-9.81014
七	-9.81017
装了	-9.81082
原	-9.81173
盖	-9.81207
来电	-9.81304
半天	-9.81371
眼	-9.81417
差点	-9.81446
▁还	-9.81501
刚刚	-9.81554
帮助	-9.81564
没法	-9.81692
重量	-9.81704
也就是	-9.81829
是因为	-9.81842
比较方便	-9.81871
气味	-9.81936
也不会	-9.8195
............	-9.81985
到现在	-9.81999
充电器	-9.82131
说好的	-9.82144
好好	-9.82151
用过	-9.82166
死了	-9.82173
住在	-9.82313
取	-9.82322
夏天	-9.82372
假的	-9.82375
板	-9.82376
c	-9.82489
浴缸	-9.82531
常	-9.82574
因为是	-9.82596
打了	-9.82698
程序	-9.82826
八	-9.82827
要么	-9.82927
很容易	-9.83017
偏小	-9.83049
记得	-9.83074
往	-9.83172
天天	-9.83207
套房	-9.83477
人物	-9.8358
风格	-9.83719
响	-9.83723
一个月	-9.83754
哟	-9.83784
了一下	-9.83807
伊利	-9.83831
反而	-9.8408
总台	-9.84093
▁性价比高	-9.84131
而言	-9.84196
潘婷	-9.84228
若	-9.84235
上当了	-9.84249
不给	-9.84268
的情况	-9.84274
很不好	-9.8429
一份	-9.84386
简直是	-9.84412
很不方便	-9.84498
相当不错	-9.84507
服务不错	-9.84688
多次	-9.84813
对比	-9.84816
这次买的	-9.84826
以上	-9.84881
很不满意	-9.84896
照	-9.84936
浪费	-9.85028
足	-9.8506
她的	-9.85086
型	-9.85119
细节	-9.85151
帮	-9.85172
.....	-9.85214
检查	-9.85217
改进	-9.85266
cn	-9.85313
找到	-9.8534
750	-9.85497
下次还来	-9.85638
能力	-9.85648
隔音	-9.85662
细腻	-9.85698
难吃	-9.85703
脆甜	-9.85719
人生	-9.85821
掉了	-9.8587
很安静	-9.85877
这是我	-9.85901
住宿	-9.8593
生鲜	-9.86067
▁产品	-9.86092
司机	-9.86144
那天	-9.86145
关机	-9.8617
的小	-9.86252
市场	-9.8633
:1.	-9.86356
并不	-9.86384
的洗发水	-9.86513
爱情	-9.8653
说的	-9.8653
得到	-9.86573
理论	-9.86688
很赞	-9.86825
在京东	-9.87019
极差	-9.87039
厕所	-9.87077
预订	-9.87085
服务也不错	-9.8739
号码	-9.87395
等待	-9.87487
▁一般般	-9.87546
GPRS	-9.87614
社会	-9.87622
130	-9.87731
▁宝贝	-9.87839
忙	-9.87864
▁用了	-9.87907
存在	-9.88049
补	-9.88066
一开始	-9.88073
喇叭	-9.88203
会员	-9.88256
笑	-9.88341
神	-9.88359
漏	-9.88432
京东客服	-9.88453
咯	-9.88602
券	-9.88691
值得拥有	-9.88793
;2、	-9.88811
元的	-9.88885
名	-9.8897
拿来	-9.88987
很吵	-9.88999
怎样	-9.89014
▁而且	-9.89275
温泉	-9.89356
有一点	-9.89451
技术	-9.89471
点赞	-9.8953
行李	-9.896
整	-9.89696
很便宜	-9.89744
厚	-9.89861
就没有	-9.89863
经历	-9.89881
检测	-9.89894
教育	-9.89904
经济	-9.89904
待	-9.90042
星级酒店	-9.90043
关注	-9.90145
等了	-9.90275
▁穿上很舒服	-9.90364
早晨	-9.90374
▁假的	-9.90434
试	-9.9046
离开	-9.90466
拿着	-9.90572
事情	-9.9064
刷	-9.90731
吵	-9.90788
▁裤子不错	-9.90865
没用	-9.90866
现	-9.91054
经典	-9.91075
如果你	-9.91106
面料不错	-9.91133
再说	-9.91148
欺骗消费者	-9.91334
k	-9.91494
比较差	-9.91519
找客服	-9.91529
用完	-9.91539
平	-9.91541
让你	-9.91553
棒棒哒	-9.91563
p	-9.9157
火	-9.91573
到手	-9.9159
在一起	-9.91607
很多人	-9.91623
泡沫	-9.91687
马桶	-9.91749
这一点	-9.91886
V	-9.91897
很满意的一次购物	-9.91938
光盘	-9.91945
重新	-9.91992
需	-9.92002
面对	-9.92017
????	-9.92067
一晚	-9.92083
\	-9.92095
望	-9.92119
深	-9.92139
或许	-9.92176
受	-9.92193
停车场	-9.92222
关键	-9.92236
▁真的	-9.92242
并没有	-9.92289
改变	-9.92314
惊喜	-9.92319
。。。。。	-9.92336
去的	-9.92343
滴	-9.92369
最好的	-9.9258
期间	-9.92715
说实话	-9.92726
方式	-9.92728
支持华为	-9.92821
发生	-9.92857
总体感觉	-9.9288
买的时候	-9.92897
达	-9.93046
电视机	-9.93065
说什么	-9.93066
碰到	-9.93131
方	-9.93133
王	-9.93259
▁洗发水	-9.93262
买个	-9.93279
称	-9.93334
洗头	-9.93337
接受	-9.93444
自带	-9.93445
主动	-9.9347
相	-9.93476
即	-9.936
式	-9.93615
移动	-9.93627
先生	-9.93632
非常方便	-9.93638
认为	-9.93671
像是	-9.93855
老是	-9.9393
服务差	-9.93955
有关	-9.94014
订了	-9.94097
清楚	-9.94228
▁今天	-9.94245
不卡	-9.94249
用来	-9.94415
拍的	-9.94425
每次都	-9.94438
电影	-9.94453
很开心	-9.94457
紧	-9.94458
太多了	-9.94465
鼠标	-9.94492
真的不错	-9.945
什么都没有	-9.94532
的水果	-9.94538
性价比不错	-9.94583
位	-9.94603
机场	-9.94742
不干净	-9.9483
非常差	-9.94869
楼层	-9.9487
▁3、	-9.94926
价格合理	-9.94933
90	-9.94948
屏幕大	-9.95045
纸	-9.95064
45	-9.95114
对方	-9.95179
3.	-9.95268
包装好	-9.95289
连个	-9.95509
好多了	-9.95544
真心不错	-9.95576
轻	-9.95592
理	-9.95609
白色	-9.95623
非常的	-9.95658
少了	-9.95696
启动	-9.95779
第一天	-9.95803
这就是	-9.95832
给了	-9.95834
有了	-9.95853
也不是	-9.95963
国内	-9.96074
用餐	-9.96166
待机	-9.96197
居然是	-9.96226
女人	-9.96321
然	-9.96562
据说	-9.96585
部	-9.96635
休息	-9.96656
差差差	-9.96684
还算可以	-9.96716
▁好吃	-9.96738
乐	-9.96748
一点都不	-9.96773
套餐	-9.96778
永远	-9.96807
一直在	-9.96824
既然	-9.96828
发热	-9.96918
没的说	-9.96937
小姐	-9.97003
大约	-9.97086
片	-9.97132
没得说	-9.972
可以用	-9.97216
环境不错	-9.97249
棒	-9.9735
白天	-9.97366
方法	-9.97367
真的很不错	-9.9745
楼下	-9.9746
洗发露	-9.97525
努力	-9.9754
省	-9.97574
较大	-9.97578
人的	-9.97582
无论	-9.97664
没有坏的	-9.9769
e	-9.9775
第二天早上	-9.97771
一位	-9.97847
其次	-9.97878
不知道为什么	-9.97961
推	-9.97968
很合身	-9.98068
师傅	-9.98083
马	-9.98132
帮忙	-9.98192
指纹	-9.98206
一块	-9.98288
▁还没用	-9.98325
到达	-9.9833
不断	-9.98337
64	-9.98375
确实是	-9.98436
一部	-9.98437
不适合	-9.98442
脚	-9.98474
不算	-9.98516
录音	-9.98642
真实	-9.98675
也很不错	-9.98694
▁包装很好	-9.98709
大厅	-9.98736
就坏了	-9.9875
询问	-9.98794
泡	-9.98843
内置	-9.9885
取消	-9.98877
音效	-9.98884
出来的	-9.98942
再买	-9.98981
减	-9.99012
我看	-9.99035
具有	-9.99055
不对	-9.99059
快捷	-9.99162
有几个	-9.99239
▁3	-9.99283
你的	-9.99396
显示屏	-9.99438
真不错	-9.99446
简直就是	-9.99485
有两个	-9.99507
装的	-9.99516
飞机	-9.99536
有弹性	-9.99634
空	-9.99676
此酒店	-9.99698
等到	-9.99757
入手	-9.99796
拒绝	-9.99906
城市	-10.0002
意	-10.0002
记	-10.0004
很高	-10.0004
建议大家	-10.0006
真正的	-10.0008
然而	-10.0009
最终	-10.001
才买的	-10.0014
配件	-10.0026
特色	-10.0029
一句	-10.0033
运费	-10.0034
更换	-10.0042
确定	-10.0048
特意	-10.0068
纯	-10.0072
3、	-10.0074
尺码	-10.0074
住过	-10.0075
提高	-10.0078
很适合	-10.008
好像是	-10.0082
要不是	-10.0083
发短信	-10.0088
退房时	-10.0099
▁说实话	-10.0106
大部分	-10.0115
类似	-10.0115
虽然是	-10.0117
身上	-10.0132
▁12	-10.0142
▁收到了	-10.0148
黄	-10.0171
下次再来	-10.018
我认为	-10.0202
较好	-10.0204
上当	-10.0208
材料	-10.0208
99	-10.021
测试	-10.0225
销售	-10.023
文化	-10.0237
了很多	-10.0244
变成	-10.0244
共	-10.0251
~!	-10.0254
▁现在	-10.0264
厂家	-10.0265
较差	-10.0269
无论是	-10.0281
拿出来	-10.0283
屏幕清晰	-10.0287
服务态度很好	-10.0287
!!!!!!	-10.0288
中心	-10.0292
打算	-10.0302
还送了	-10.0303
是假的	-10.0306
▁好评	-10.0314
不清楚	-10.0318
坑人	-10.0319
很是	-10.0327
▁第一次买	-10.0328
Vista	-10.0329
都在	-10.0331
国	-10.0337
600	-10.0347
送货速度快	-10.0355
价格也	-10.0356
采用	-10.0361
笔	-10.037
快速	-10.0371
保证	-10.0382
期	-10.0384
快乐	-10.0385
药	-10.039
客	-10.0396
家具	-10.0397
质量不好	-10.0408
外包装	-10.0408
'	-10.041
特价	-10.0414
上去	-10.0421
饭	-10.0425
▁优点	-10.0429
担心	-10.0431
成为	-10.0438
线头	-10.0442
尚可	-10.0443
五星好评	-10.0453
▁2	-10.0465
因为我	-10.0468
淋浴	-10.0471
回去	-10.0471
连接	-10.0475
比较小	-10.0476
也会	-10.0481
▁裤子质量不错	-10.0484
数据线	-10.0487
曾经	-10.0489
个人感觉	-10.0496
合	-10.0497
宣传	-10.0499
太好了	-10.05
暂时	-10.0507
第三	-10.051
只能用	-10.0513
强烈推荐	-10.0513
很脆	-10.052
无线	-10.0523
估计是	-10.0525
超过	-10.0526
SD	-10.0528
待机时间	-10.0528
物流也快	-10.0533
留	-10.0535
一共	-10.0543
贴膜	-10.0552
蒙牛的	-10.056
忘了	-10.0563
照相	-10.0569
酸奶	-10.057
也不好	-10.0572
城	-10.0581
步行	-10.0587
吃了一个	-10.0594
就能	-10.0607
通	-10.061
▁华为	-10.0618
穿的	-10.0619
今年	-10.0622
虽	-10.0624
秒杀	-10.0628
在京东买	-10.0633
里的	-10.0634
四个	-10.0638
▁还行	-10.0642
身	-10.0642
内部	-10.0642
给人	-10.0654
极	-10.0655
卷	-10.0656
印象	-10.0663
失败	-10.0666
一台	-10.0669
草	-10.0673
豪华	-10.0674
精神	-10.0678
收到了	-10.0684
仅	-10.0685
边上	-10.0685
直到	-10.0696
出了	-10.0697
通知	-10.0699
第一个	-10.072
充	-10.0724
号楼	-10.0728
真的很	-10.0728
洗完头发	-10.0731
很流畅	-10.0732
特别喜欢	-10.0734
重启	-10.0737
再来	-10.0747
▁但是	-10.0751
一会	-10.0754
插	-10.0754
退了	-10.0759
33	-10.0759
潘苹果	-10.076
到酒店	-10.0766
拿到手	-10.0767
错误	-10.0777
偏	-10.0778
一句话	-10.0779
香港	-10.0781
听到	-10.0796
漏了	-10.0799
灰	-10.0808
的评价	-10.0811
被告知	-10.0817
盒	-10.0818
上午	-10.0819
吹风机	-10.0819
自营	-10.0823
并不是	-10.0825
ipad	-10.0834
就降价	-10.0842
大床	-10.0843
mp	-10.0843
这个牌子	-10.0845
很脏	-10.0857
借	-10.086
最大的	-10.0862
偶尔	-10.0864
;3、	-10.0867
结帐	-10.0879
服务也很好	-10.088
很实用	-10.0883
实际上	-10.0883
前台服务	-10.0887
不高	-10.0887
中国人	-10.0891
哈哈哈	-10.0892
布	-10.0915
风景	-10.0915
保安	-10.0918
的设计	-10.092
换成	-10.0921
温馨	-10.0922
咖啡	-10.0925
在京东买东西	-10.0935
送人	-10.0945
应用	-10.0949
文件	-10.095
忽悠	-10.0952
温度	-10.0954
有点失望	-10.0959
太少	-10.0961
修身	-10.0961
偶	-10.0963
不是很大	-10.098
餐饮	-10.0982
街	-10.0985
就不	-10.0989
MM	-10.0989
遗憾	-10.0996
开车	-10.0999
没人	-10.1003
这个价钱	-10.101
▁除了	-10.101
男人	-10.1019
这不是	-10.1023
但我	-10.1036
明	-10.1037
房子	-10.1037
电源	-10.1039
:)	-10.1041
网站	-10.1042
走了	-10.1044
还是很不错的	-10.1053
达到	-10.1058
想想	-10.1065
给他	-10.1067
告诉	-10.1069
东西不错	-10.1072
买家	-10.1074
咨询	-10.1079
她说	-10.1087
的生活	-10.1087
里面有	-10.1088
字体	-10.1095
的功能	-10.111
大气	-10.1111
。。。。。。	-10.1112
促销	-10.1113
日入住	-10.1115
还没有用	-10.1118
压	-10.1121
TFT	-10.1126
▁东西很好	-10.1127
微信	-10.1129
才到	-10.113
标	-10.1133
不符	-10.1134
最重要的是	-10.1134
还行吧	-10.1136
很麻烦	-10.1137
日期	-10.1138
优势	-10.1141
住客	-10.1143
首	-10.1147
书籍	-10.1148
真的很好	-10.115
改成	-10.1154
满足	-10.1158
很给力	-10.116
比较多	-10.1161
短	-10.1163
控制	-10.1169
很慢	-10.1172
只能说	-10.1176
闹钟	-10.1176
哪里	-10.1181
拆开	-10.1184
好几个	-10.1186
穿起来很舒服	-10.1189
臭	-10.1192
一楼	-10.1202
在网上	-10.1204
▁刚	-10.1211
研究	-10.1219
清爽	-10.1235
略	-10.1249
88	-10.1249
九	-10.125
安	-10.1255
成了	-10.1256
骗人	-10.1257
英语	-10.126
的效果	-10.1264
折	-10.1267
早餐一般	-10.1272
这款手机	-10.1272
印刷	-10.1276
看书	-10.1276
包裹	-10.1279
。5、	-10.1286
▁不错不错	-10.1286
记录	-10.1291
发展	-10.1292
质量差	-10.13
京东购物	-10.1301
▁很喜欢	-10.1306
太大了	-10.1308
市	-10.1313
房卡	-10.1315
周到	-10.1318
刚刚好	-10.132
当我	-10.1333
嘿嘿	-10.1345
HP	-10.1352
形象	-10.1354
设施陈旧	-10.1358
LED	-10.1359
刚开始	-10.1368
个人觉得	-10.1368
付款	-10.1368
就更好了	-10.1369
▁不怎么样	-10.1372
苦	-10.1382
定了	-10.139
没有了	-10.1391
既	-10.1398
发膜	-10.1402
扔了	-10.1403
查询	-10.141
酒店的服务	-10.1415
大家都	-10.1415
均	-10.142
小小的	-10.1422
货物	-10.1435
发的	-10.1442
脸	-10.1442
第一次买	-10.1446
明天	-10.1447
完全没有	-10.1453
I	-10.1454
提出	-10.1455
售后服务	-10.1456
华硕	-10.1457
另一个	-10.1473
▁机子	-10.1474
退款	-10.1475
办	-10.1476
过于	-10.148
外屏	-10.1482
128	-10.1483
▁服务	-10.1488
竟	-10.149
词	-10.149
遍	-10.149
反	-10.1492
前台小姐	-10.1493
读完	-10.1494
根据	-10.1498
精致	-10.1504
停	-10.1506
商场	-10.1509
的平板	-10.1526
卖的	-10.153
一堆	-10.1533
烦	-10.1537
结帐时	-10.1539
很久	-10.1552
接待	-10.1554
画	-10.1576
生气	-10.1582
一层	-10.1583
▁收到	-10.1586
把我	-10.1601
专门	-10.1605
房间小	-10.1609
难看	-10.1612
周末	-10.1619
主	-10.1626
态度很好	-10.1635
而不是	-10.1635
具体	-10.1641
什么时候	-10.1643
海景	-10.1646
狗	-10.1647
格	-10.1649
茶	-10.1655
认真	-10.1665
早饭	-10.1667
▁很好用	-10.1676
下的单	-10.1688
挑	-10.1689
音	-10.169
断	-10.1692
!!!!!!!!!!!!!!!!	-10.1693
▁从	-10.1698
蓝	-10.1699
菜单	-10.1701
一流	-10.1701
热水器	-10.1706
房间很干净	-10.171
活动买的	-10.1715
我家	-10.1722
180	-10.1724
情节	-10.1724
购	-10.1725
同样的	-10.1725
开门	-10.1727
家人	-10.1733
整洁	-10.1734
出行	-10.1741
蚊子	-10.1743
文章	-10.1747
真好	-10.1757
会不会	-10.1758
太坑了	-10.176
软	-10.1762
连续	-10.1766
▁这个苹果	-10.1766
那就	-10.1772
在我	-10.1773
d	-10.1775
打扫	-10.1775
男	-10.1776
档次	-10.178
,618	-10.1785
囤货	-10.1785
充满	-10.1789
比较麻烦	-10.1791
服务态度好	-10.1798
手感很好	-10.1809
小巧	-10.1815
太差劲了	-10.1816
作品	-10.1821
l	-10.1821
英文	-10.1824
太垃圾了	-10.1825
和我	-10.1831
配合	-10.1832
克	-10.1834
不是很	-10.1838
这样的酒店	-10.1859
个小	-10.1859
京东物流	-10.186
顶	-10.1862
承诺	-10.1866
一下子	-10.1878
希望能	-10.1884
在酒店	-10.1886
的内存	-10.1887
一点点	-10.1887
仍然	-10.1888
我们的	-10.1894
宝	-10.1894
国产	-10.1902
周	-10.1909
页面	-10.1911
非常不好	-10.1913
缺少	-10.1918
游	-10.1923
家庭	-10.193
小瓶	-10.193
过的	-10.1931
▁东西收到了	-10.1932
条件	-10.1935
背	-10.1937
跟我	-10.194
非要	-10.1943
挺喜欢的	-10.1948
上来	-10.1954
眼睛	-10.1954
更多	-10.1957
个头不大	-10.1959
服务一般	-10.1959
还不	-10.1967
小朋友	-10.1969
对面	-10.197
想买	-10.1973
我住的是	-10.198
说明书	-10.1984
娱乐	-10.1991
内屏	-10.1991
价位	-10.1991
音量	-10.1998
描述	-10.2001
华	-10.2001
也就算了	-10.2003
蓝色	-10.201
一晚上	-10.2029
送过来	-10.2029
不怎么好	-10.203
凌晨	-10.2035
▁味道	-10.2044
F	-10.2055
打的	-10.206
是什么	-10.206
我又	-10.206
表现	-10.2065
没了	-10.2068
勉强	-10.207
地铁	-10.2077
前台服务员	-10.2079
忘记	-10.2086
哪	-10.2087
没事	-10.2089
抵制蒙牛	-10.2093
买过	-10.2096
都说	-10.21
的那个	-10.2103
不怎么	-10.2107
房费	-10.2109
效率	-10.211
写得	-10.2111
外形	-10.212
材质	-10.2122
完美屏	-10.2123
底	-10.2124
合作	-10.2126
企业	-10.2127
挂	-10.2128
同学	-10.213
▁酒店位置	-10.2134
黑色的	-10.2139
▁#	-10.2141
的一本书	-10.2142
谈	-10.2143
闹	-10.2151
模糊	-10.2151
错了	-10.2154
去住	-10.2155
朋友说	-10.2155
住这里	-10.2171
外观漂亮	-10.2174
造成	-10.2175
很热情	-10.2177
看到了	-10.2179
效果很好	-10.218
料子	-10.2183
级	-10.2184
平板电脑	-10.2189
扬声器	-10.2192
▁本来	-10.2199
花园	-10.2214
拍摄	-10.2216
窗	-10.2224
思考	-10.2224
国际	-10.2227
读书	-10.2229
特别小	-10.2229
叫我	-10.2231
大堂经理	-10.2244
不值得	-10.2245
价值	-10.2245
我已经	-10.2248
身体	-10.2253
齐全	-10.2257
▁环境	-10.2257
搞定	-10.2261
认识	-10.2264
风扇	-10.2266
中文	-10.2271
做了	-10.2272
的机器	-10.2276
立马	-10.2283
▁电池	-10.2287
▁刚收到	-10.2289
kg	-10.229
还送	-10.2298
再也不	-10.231
▁买	-10.2312
▁衣服不错	-10.2318
送货很快	-10.2318
▁已经	-10.2323
秒	-10.2327
经济实惠	-10.2331
不可能	-10.2334
我去	-10.2336
可以看到	-10.2341
质量问题	-10.2341
i	-10.2341
第二天就	-10.2343
▁4	-10.2344
刷卡	-10.2347
粗糙	-10.235
除	-10.2352
这书	-10.2356
老婆	-10.2358
65	-10.2359
不管是	-10.2361
包装盒	-10.2364
一股	-10.2364
装系统	-10.2366
给差评	-10.2367
不敢	-10.2376
票	-10.2377
一盒	-10.2379
不推荐	-10.2383
单位	-10.2386
冰箱	-10.2387
完好	-10.2392
跳	-10.2392
到位	-10.2394
排	-10.2395
平台	-10.2396
一本书	-10.2398
自助早餐	-10.2402
改善	-10.2403
想到	-10.2407
▁物美价廉	-10.2411
伤心	-10.2413
久	-10.2416
好好的	-10.2419
家长	-10.242
作用	-10.2421
聊天	-10.2424
仔细	-10.2425
▁这个酒店	-10.2426
标签	-10.2429
名字	-10.2438
星酒店	-10.2445
牛仔裤	-10.2446
暗	-10.2448
服	-10.2449
就可以了	-10.2456
腿	-10.2462
做活动	-10.2469
够用	-10.2473
亮	-10.2494
豪华房	-10.2502
的吗	-10.2506
度假	-10.2507
但是我	-10.2509
的客人	-10.2515
给孩子	-10.2515
发货快	-10.2515
阳台	-10.2517
提升	-10.2519
爸爸	-10.2525
▁面料不错	-10.2529
轻松	-10.253
不得不	-10.2531
的位置	-10.2534
完了	-10.2534
微笑	-10.2535
比我	-10.2545
变化	-10.2546
2020	-10.2549
非常不满意	-10.256
棒棒的	-10.2566
之外	-10.2567
很舒适	-10.2567
有种	-10.2569
不值这个价	-10.257
打折	-10.2586
水分	-10.259
▁看了	-10.2592
没有问题	-10.2597
很香	-10.2599
▁不过	-10.2605
起码	-10.2607
状态	-10.2608
▁非常	-10.2608
重要	-10.2613
O	-10.2619
给予	-10.2636
可以说	-10.2637
欺骗	-10.2638
房间很小	-10.2638
就开始	-10.2643
搭配	-10.2645
负责	-10.2646
脆脆的	-10.2647
▁以前	-10.2648
要好	-10.2649
毛病	-10.2659
能不能	-10.2668
能用	-10.268
哪个	-10.2688
毕竟是	-10.2695
▁喜欢	-10.2703
700	-10.2704
▁还有	-10.2709
说了	-10.272
自带的	-10.2721
我现在	-10.2721
▁苹果不错	-10.2723
‘	-10.2728
IBM	-10.2729
▁呵呵	-10.2735
夜	-10.2737
也不知道	-10.2746
▁颜色	-10.275
那边	-10.2762
传	-10.2775
而且是	-10.2785
宽	-10.2787
这个苹果	-10.2788
吃完	-10.2795
▁水果	-10.2802
完全不一样	-10.2807
荣耀	-10.2808
大了	-10.2808
派送	-10.2808
一模一样	-10.281
好书	-10.281
▁裤子很好	-10.2811
的缘故	-10.2823
和弦	-10.2827
说好	-10.283
解	-10.2832
根	-10.2832
以为是	-10.2838
就知道	-10.2839
晚餐	-10.2845
已经是	-10.2852
朋友们	-10.2853
领	-10.2856
实物	-10.2863
很不舒服	-10.2864
有什么	-10.2882
应该是正品	-10.2884
很不爽	-10.2885
分量	-10.2885
哭	-10.2891
触摸板	-10.2895
的确是	-10.2896
想象	-10.2898
就没	-10.2899
百	-10.2903
QQ	-10.2904
DDR	-10.2905
体	-10.2907
足够了	-10.2908
市区	-10.2909
赔偿	-10.292
或是	-10.2922
250	-10.2924
寸的	-10.2927
完成	-10.2945
代	-10.2946
日本	-10.2947
广场	-10.2955
道歉	-10.2957
慢慢	-10.2962
答复	-10.297
申请	-10.2976
码数	-10.2978
枕头	-10.2979
各位	-10.2983
你们的	-10.2986
教	-10.299
明白	-10.2993
深圳	-10.2994
的货	-10.3004
不懂	-10.3008
2、	-10.3008
是假货	-10.3009
靠近	-10.3011
过程	-10.3012
走路	-10.3013
柔软	-10.3013
活	-10.3023
感觉很不错	-10.3024
不要买	-10.3025
入住该酒店	-10.3026
的文字	-10.3026
皮套	-10.3027
便宜没好货	-10.3031
够大	-10.3032
▁散热	-10.3032
拖鞋	-10.3035
手感不错	-10.3035
更新	-10.3036
性价比不高	-10.3036
粉	-10.3041
打开一看	-10.3041
不可	-10.3043
超大	-10.3047
汗	-10.3049
自我	-10.305
辛苦了	-10.3052
用不了	-10.306
鱼	-10.3061
亦	-10.3068
号称	-10.3073
白色的	-10.3073
幸好	-10.3076
了些	-10.3078
室内	-10.3078
的人来说	-10.308
极其	-10.308
>	-10.3081
的商品	-10.3083
涩	-10.3083
华为手机	-10.3085
质感	-10.3086
资料	-10.3088
▁键盘	-10.3088
▁物流快	-10.3088
我不知道	-10.3091
还有很多	-10.3101
一年	-10.3107
来讲	-10.3107
换房	-10.3108
京豆	-10.3114
绝对是	-10.3116
可以接受	-10.3116
自助餐	-10.3142
方便快捷	-10.3159
寄	-10.3159
很好的	-10.3165
类	-10.3169
累	-10.3174
调整	-10.3176
就不说了	-10.318
▁机器	-10.3187
生意	-10.3189
给好评	-10.3189
非常失望	-10.3192
求	-10.3194
▁还行吧	-10.3195
摔	-10.3196
不会再买	-10.3196
结束	-10.3197
四星级	-10.3201
的钱	-10.3208
蛮好的	-10.321
当地	-10.3213
存储	-10.3216
烟台苹果	-10.3216
硬件设施	-10.3218
在此	-10.3222
窗外	-10.3229
实	-10.3231
根本就	-10.3243
▁非常不错	-10.3244
总体感觉不错	-10.325
血	-10.3253
120	-10.3256
符合	-10.3258
擦	-10.326
ok	-10.3262
编辑	-10.3262
WAP	-10.3265
很薄	-10.3267
150	-10.327
w	-10.328
稳定	-10.3284
江	-10.3286
才会	-10.3287
感觉还可以	-10.3287
现实	-10.329
海景房	-10.3296
是有	-10.3299
超赞	-10.3299
b	-10.3306
易	-10.3311
也不能	-10.3315
两瓶	-10.332
大爱	-10.3322
方向	-10.3322
跟我说	-10.3324
翻盖	-10.3332
操作系统	-10.3339
前后	-10.3343
小了点	-10.3346
壳	-10.335
开关	-10.3361
版型	-10.3363
对我	-10.3363
当初	-10.3368
个人认为	-10.3373
的作品	-10.3377
。5.	-10.3378
去年	-10.3378
▁火龙果	-10.3379
缺乏	-10.3385
缺点是	-10.3386
稍	-10.3394
搞笑	-10.3397
一个字	-10.34
加油	-10.3404
俩	-10.3409
书的	-10.3411
大人	-10.3415
良心	-10.3425
变得	-10.3425
简陋	-10.3428
超好	-10.3429
都不知道	-10.3436
▁如果	-10.3438
龙	-10.344
木	-10.344
_	-10.3443
想着	-10.3444
独显	-10.345
清洁	-10.3451
霉味	-10.3451
始终	-10.3458
保存	-10.3459
得很	-10.3459
发送	-10.3463
双十一	-10.3464
抵制	-10.3465
在这	-10.347
不同的	-10.3477
交	-10.3479
加了	-10.3479
放了	-10.3479
---	-10.3485
儿童	-10.349
一只	-10.3491
一段	-10.3493
点半	-10.3496
理由	-10.3501
气愤	-10.3505
这家店	-10.3505
▁很差	-10.3512
试用	-10.3512
比较安静	-10.3517
▁之前	-10.3519
四星级酒店	-10.3522
个头小	-10.3522
办公	-10.3523
很清晰	-10.3525
没有办法	-10.3526
去机场	-10.353
丢了	-10.3531
房内	-10.3531
不买	-10.3537
角	-10.3537
奇怪	-10.3537
谁知道	-10.3542
快递很快	-10.3545
心理	-10.3546
欣赏	-10.3552
感情	-10.3555
还便宜	-10.3556
催	-10.3558
▁哎	-10.3559
虽说	-10.3564
知	-10.3578
);	-10.3587
结账	-10.3594
各方面	-10.3598
设计的	-10.3605
6.18	-10.3612
泳池	-10.3612
质量也很好	-10.3613
底部	-10.3613
美观	-10.3625
手机的	-10.3628
衣	-10.3628
厉害	-10.3632
的内容	-10.3632
接电话	-10.3632
多多	-10.3634
差距	-10.3637
我买了	-10.364
口感不错	-10.3645
▁我觉得	-10.3649
伤	-10.3655
不但	-10.3656
▁6	-10.3656
▁质量太差	-10.3669
报	-10.3673
学生	-10.3674
▁不是	-10.3675
这个问题	-10.3679
尽	-10.368
的风格	-10.368
水分足	-10.3681
凉	-10.3683
食物	-10.3683
冬天	-10.3686
网线	-10.3688
收藏	-10.369
数据	-10.3692
责任	-10.3701
相关	-10.3703
不敢恭维	-10.3705
成熟	-10.3707
在那里	-10.3707
不会再买了	-10.3709
也许是	-10.3713
追求	-10.3715
也算	-10.3719
了点	-10.3722
口感好	-10.3722
以外	-10.3723
▁其实	-10.3729
保持	-10.3731
指	-10.3736
就买了	-10.3737
骗子	-10.3737
退换	-10.3739
烧	-10.3739
本来就	-10.3739
如果有	-10.3747
精彩	-10.3748
购买了	-10.3753
噢	-10.3755
那么大	-10.3763
急	-10.3763
路上	-10.3764
接近	-10.3769
一直在用	-10.3772
来回	-10.3773
冰	-10.3774
折腾	-10.3778
升	-10.378
解决问题	-10.3786
扣	-10.3786
如果不是	-10.3789
落	-10.3789
林	-10.379
cpu	-10.3792
删除	-10.3793
在里面	-10.3796
不知道怎么	-10.3797
湖	-10.38
35	-10.38
顺	-10.3803
准	-10.3804
重复	-10.3809
但还是	-10.3812
入住了	-10.3825
<	-10.3829
才有	-10.3831
付	-10.3833
有待提高	-10.3839
旁	-10.3841
果断	-10.3843
信任京东	-10.3843
建筑	-10.3847
一个星期	-10.385
傻	-10.3851
最差的	-10.3854
的电话	-10.3857
电子产品	-10.3877
裤	-10.3887
却没有	-10.3888
以前的	-10.3889
份	-10.3899
再加上	-10.39
后面的	-10.3902
土	-10.3907
大酒店	-10.3913
对着	-10.3914
房型	-10.3916
千万别买	-10.3916
小孩子	-10.3918
黑屏	-10.392
前台说	-10.3926
墙	-10.3927
▁昨天	-10.3932
好吧	-10.3933
地板	-10.3933
输入法	-10.3935
年的	-10.3936
丢	-10.3936
汤	-10.3939
京东自营的	-10.3939
想退货	-10.3943
▁这苹果	-10.3944
不开	-10.3947
德	-10.3949
▁外观漂亮	-10.395
结	-10.3955
不便	-10.3959
上网本	-10.3964
不容易	-10.3965
▁一直	-10.3966
都不会	-10.397
其它的	-10.3971
没话说	-10.3975
面积	-10.3985
BIOS	-10.3989
).	-10.3991
界面	-10.3998
就说	-10.3999
云	-10.4001
没啥	-10.4004
大方	-10.4011
亮度	-10.4013
无比	-10.4014
主题	-10.4017
了不少	-10.4025
果肉	-10.4025
火车站	-10.4026
参考	-10.4029
太贵了	-10.4031
▁太	-10.4035
赶上	-10.4038
万像素	-10.4041
收了	-10.4044
又说	-10.4045
的质量	-10.4045
太贵	-10.4047
到前台	-10.4053
一周	-10.4056
▁嗯	-10.4058
配送员	-10.4059
痛苦	-10.4059
混	-10.4062
最后还是	-10.4062
▁很满意	-10.4065
外表	-10.4069
优惠券	-10.407
扔	-10.4071
看得	-10.4079
的品牌	-10.4082
总结	-10.4082
老外	-10.4094
公园	-10.4099
的衣服	-10.41
在外面	-10.4108
水准	-10.411
▁对于	-10.4113
空气	-10.4122
就这么	-10.4127
我会	-10.413
修改	-10.4131
的牌子	-10.4133
房间里的	-10.4133
真不知道	-10.4142
一如既往的好	-10.4143
也不行	-10.4144
降	-10.4147
可能会	-10.4149
全面	-10.4149
地段	-10.4152
鸡	-10.4152
受不了	-10.4154
细致	-10.4157
就不能	-10.4158
那时	-10.4164
这种情况	-10.4165
银行	-10.4173
&	-10.418
订房	-10.4183
怎么办	-10.4184
刚收到	-10.4192
第一次用	-10.4195
迷	-10.4196
就到了	-10.42
装上	-10.42
要我	-10.4202
希望京东	-10.4203
没货	-10.4205
信任	-10.4207
赠	-10.4207
买了一套	-10.4209
有赠品	-10.4211
中央空调	-10.4214
依旧	-10.4216
记忆	-10.4221
言	-10.4225
^_^	-10.4226
有一种	-10.4235
2000	-10.4236
看完了	-10.4236
道理	-10.4243
没有一点	-10.4243
▁系统	-10.4245
他很喜欢	-10.425
挺好用的	-10.4254
合身	-10.4256
五星级酒店	-10.4262
相机	-10.4263
某	-10.4264
您好	-10.4268
原来是	-10.4276
▁买回来	-10.4276
说要	-10.4281
▁裤子很不错	-10.4281
同意	-10.4284
当当网	-10.4285
的驱动	-10.4293
网速	-10.4301
问了	-10.4301
样式	-10.4305
买了个	-10.4308
保护套	-10.4314
新机	-10.4314
押金	-10.4322
接着	-10.4326
请问	-10.4329
美国	-10.4337
关系	-10.4339
至今	-10.4346
亏	-10.4346
世	-10.435
书里	-10.4351
钢化膜	-10.4354
足够	-10.4361
▁怎么	-10.4361
▁不好吃	-10.4363
很大的	-10.4364
损坏	-10.437
对不起	-10.4372
按摩	-10.4375
速度慢	-10.4384
4.	-10.4384
思想	-10.4385
▁太小了	-10.4395
长期	-10.4399
可爱	-10.4401
较多	-10.4403
汽车	-10.4405
礼品	-10.4409
意见	-10.4411
这个价	-10.4412
班车	-10.4413
立	-10.4415
猫	-10.4417
我很满意	-10.4422
就是好	-10.4429
的很	-10.4439
常常	-10.444
感觉是	-10.4444
▁@	-10.4446
这裤子	-10.4446
让他	-10.4448
用品	-10.4448
运行流畅	-10.445
我还是	-10.4453
彻底	-10.4461
不小心	-10.4461
出色	-10.4468
随	-10.4469
就发现	-10.4471
封	-10.4472
▁没	-10.4474
是真的	-10.4482
定的	-10.4482
不在	-10.4483
房间也	-10.4486
我买的	-10.449
去买	-10.4498
携程的	-10.4502
最大	-10.4503
还是要	-10.4515
不送	-10.4524
的订单	-10.4529
难受	-10.4529
北	-10.4531
是一本	-10.4532
一星都不想给	-10.4533
缺	-10.4536
下次去	-10.4538
结局	-10.4541
收到后	-10.4542
厨房	-10.4543
▁最近	-10.4544
关闭	-10.4544
滑	-10.4545
很爽	-10.4547
第三方	-10.4553
痛	-10.4555
饮料	-10.4565
就一个	-10.4566
不稳定	-10.4571
味道也	-10.4571
食品	-10.4574
缝	-10.4575
利用	-10.4576
我们是	-10.4576
版的	-10.4586
试了一下	-10.4592
早点	-10.46
适中	-10.4602
华为的	-10.4604
吹	-10.4604
尝试	-10.4606
价格贵	-10.4608
在家	-10.461
变形	-10.4611
送货员	-10.4611
论	-10.4617
电话簿	-10.4618
大大的	-10.4621
▁客服	-10.4622
不太方便	-10.463
快捷键	-10.4639
cm	-10.4641
的机子	-10.4648
的关系	-10.4648
所以我	-10.4653
▁5.	-10.4654
细	-10.4657
母亲	-10.4659
服务周到	-10.4662
不符合	-10.4663
非常感谢	-10.4664
毫无	-10.4667
平常	-10.467
2008	-10.467
餐	-10.4671
不再	-10.4671
完善	-10.4672
临时	-10.4672
淋浴房	-10.4676
粘	-10.4676
以后就	-10.4677
才行	-10.4677
280	-10.4678
的屏幕	-10.4682
高清	-10.4684
表	-10.4688
增加	-10.4688
塑料	-10.4689
▁第二次买了	-10.4691
意思	-10.4693
还是比较	-10.4696
酒吧	-10.4697
不建议购买	-10.4699
都这样	-10.4704
挺划算的	-10.4705
登记	-10.4706
一星	-10.4706
之前买的	-10.4709
数字	-10.4713
▁out	-10.4717
▁帮朋友买的	-10.4719
一点都不好	-10.4723
沙发	-10.4726
质量非常好	-10.4727
也还可以	-10.4729
过后	-10.4729
▁太垃圾了	-10.473
头痒	-10.4742
各个	-10.4744
的心情	-10.4745
▁做工	-10.4745
淡	-10.4745
语	-10.4745
经验	-10.4758
国家	-10.4767
河	-10.4769
质量太差	-10.477
个别	-10.4773
浴巾	-10.4776
哥	-10.4782
两个人	-10.4785
▁真是	-10.4786
受到	-10.4791
挤	-10.4795
送到家	-10.4801
音响	-10.4801
推荐购买	-10.4805
美丽	-10.4809
对我们	-10.4811
怪	-10.4813
拆	-10.4822
差远了	-10.4822
出入	-10.4826
散	-10.4826
linux	-10.4835
防	-10.4837
心中	-10.484
34	-10.4842
左	-10.4844
养	-10.4845
诚信	-10.4848
论语	-10.4849
什么都	-10.4849
业务	-10.485
含	-10.485
】	-10.4852
结果是	-10.4853
人类	-10.4857
很多土	-10.4858
便宜了	-10.4863
性价比较高	-10.4865
女性	-10.4865
很旧	-10.4873
拖	-10.4874
曾	-10.4878
需求	-10.4878
包装也很好	-10.4878
歌	-10.4879
太慢	-10.488
喝蒙牛	-10.4881
▁刚刚	-10.4883
牌	-10.4886
失	-10.489
以下	-10.4893
洞	-10.4894
的好书	-10.4895
愿意	-10.4895
太慢了	-10.4898
这里的	-10.4901
我住的	-10.4901
自动关机	-10.4906
个大	-10.4909
形	-10.4911
保	-10.4912
相同	-10.4916
懂	-10.4916
发出	-10.4917
光明	-10.492
派	-10.4922
一致	-10.4924
病	-10.4925
希望以后	-10.4928
不满	-10.493
了很久	-10.4933
推荐的	-10.4934
烫	-10.4939
搞得	-10.4947
精美	-10.4947
规定	-10.4951
的一样	-10.4952
反复	-10.4952
脏啊	-10.4956
用心	-10.4956
景点	-10.4959
破了	-10.4959
。6、	-10.4961
现在的	-10.4964
发质	-10.4968
赞赞赞	-10.4968
存	-10.497
很不错的	-10.4972
设	-10.4974
科学	-10.4975
本来想	-10.4975
简单的	-10.4978
68	-10.4979
够用了	-10.4981
发过来	-10.4982
见到	-10.4984
费用	-10.4986
▁买的	-10.4989
意外	-10.499
都坏了	-10.499
不错的	-10.499
青	-10.4991
两条	-10.4997
马路	-10.4999
排队	-10.5001
内存卡	-10.5002
动作	-10.5009
迅速	-10.5015
有人说	-10.5016
南	-10.5018
到的	-10.5021
很奇怪	-10.5021
烟味	-10.5024
不给力	-10.5024
多的	-10.5024
针对	-10.5031
行为	-10.5033
有一些	-10.5034
不远	-10.5036
可见	-10.5038
的经历	-10.504
之一	-10.5047
物流给力	-10.5052
合理	-10.5054
’	-10.5054
切	-10.5055
也是醉了	-10.5055
就好	-10.5057
李	-10.5061
物流超快	-10.5062
时代	-10.5062
对京东	-10.5067
鬼	-10.5068
▁你	-10.5068
CHECK	-10.507
妹妹	-10.507
免费的	-10.5074
还算不错	-10.5079
我也是	-10.5083
可以说是	-10.5084
好用好用	-10.5085
有没有	-10.5088
般	-10.5089
味道好	-10.5089
质量也	-10.5089
态度恶劣	-10.509
宽敞	-10.5099
每个人	-10.5104
国货	-10.5112
不说了	-10.5116
答应	-10.5122
自由	-10.5122
发货很快	-10.5127
电视剧	-10.513
找了	-10.513
将近	-10.5137
;2.	-10.5139
感觉很	-10.5141
服务质量	-10.5144
出来了	-10.5144
消息	-10.5145
文学	-10.5151
多元	-10.5151
后悔了	-10.5152
不愧是	-10.5152
为啥	-10.5152
几乎没有	-10.5168
点了	-10.5177
你说	-10.5181
老妈	-10.5182
保质期	-10.519
服务还可以	-10.519
店铺	-10.5191
▁很好吃	-10.5197
挺好吃的	-10.52
▁这家酒店	-10.5205
来评价	-10.521
根本不是	-10.5212
灰尘	-10.522
▁一	-10.5221
味道很好	-10.5221
今后	-10.5224
不应该	-10.5227
周围环境	-10.5233
▁好用	-10.5233
梦	-10.5233
的方式	-10.5241
骂	-10.5243
利	-10.5247
下雨	-10.5247
寻找	-10.5248
生产	-10.5248
职场	-10.5249
160	-10.5255
▁该酒店	-10.526
如果要	-10.5269
洗发液	-10.527
小了	-10.5276
床头	-10.5282
有点像	-10.5283
员	-10.5283
肯定是	-10.5284
不知道是不是正品	-10.5285
才来评价	-10.5287
让人感觉	-10.5291
炒作	-10.5292
DVD	-10.5292
到家	-10.5295
周边环境	-10.5295
震动	-10.5297
快递也很快	-10.5301
插座	-10.5303
打开包装	-10.5307
修理	-10.5314
回到	-10.5318
路边	-10.5318
你家	-10.5322
太恶心了	-10.5324
仍	-10.5331
酒	-10.5332
了吗	-10.5337
就降价了	-10.5339
随着	-10.5339
在市中心	-10.5342
▁装	-10.5344
这个平板	-10.5347
看了一下	-10.5349
为何	-10.5354
头屑	-10.5355
听音乐	-10.5357
交涉	-10.5359
鲜	-10.5362
史	-10.538
松	-10.5384
还真	-10.5387
有所	-10.5401
亲	-10.5402
段	-10.5404
▁价格便宜	-10.5406
良好	-10.5408
还差	-10.5409
是不错的	-10.541
了半天	-10.5412
不清晰	-10.5413
立即	-10.5413
▁价格	-10.5414
装饰	-10.5416
破损	-10.5418
分享	-10.5428
人性化	-10.5429
颜色也	-10.5429
抢	-10.543
是烂的	-10.5432
观点	-10.5435
服务意识	-10.5438
那是	-10.5442
采购	-10.5443
都一样	-10.5445
难怪	-10.5446
住在这里	-10.545
料	-10.5457
占	-10.5458
评分	-10.5459
还不知道	-10.5467
京东生鲜	-10.5472
能看到	-10.5474
洗后	-10.548
闻	-10.548
都快	-10.5483
选择了	-10.5484
有异味	-10.5486
彩屏	-10.5488
挺满意的	-10.5489
理想	-10.549
中规中矩	-10.5494
老子	-10.5495
张爱玲	-10.5499
后发现	-10.55
亲切	-10.5502
出租	-10.5504
⊙	-10.5507
钻石	-10.5513
之处	-10.5515
不实用	-10.5516
都很	-10.5517
手写	-10.5521
做工精致	-10.5521
交通便利	-10.5522
~~~~	-10.5522
上班	-10.5523
不好意思	-10.5523
的评论	-10.5529
狠	-10.553
恐怖	-10.5531
弹力	-10.5531
分析	-10.5536
公里	-10.5537
卡顿	-10.5538
读起来	-10.5538
酒店前台	-10.554
;4、	-10.5541
辛苦	-10.5544
赠送的	-10.555
深刻	-10.5552
拿了	-10.5554
不理想	-10.5556
不明白	-10.5558
▁收到货	-10.5567
怎么回事	-10.5573
▁这次买的	-10.5577
留言	-10.5578
▁非常不满意	-10.5584
的孩子	-10.5585
小米	-10.5586
奇	-10.5587
突出	-10.5587
▁衣服质量不错	-10.5589
楼上	-10.5593
整体感觉	-10.5595
更多的	-10.5603
是好的	-10.5607
▁很一般	-10.5609
袋	-10.5614
房间干净	-10.5615
两种	-10.5618
保修	-10.5618
这机子	-10.563
暖气	-10.563
二十	-10.5631
场	-10.5633
漏水	-10.5634
导航	-10.5638
很热	-10.5643
收获	-10.5648
立刻	-10.5649
画质	-10.5651
根本就没有	-10.5653
锁	-10.5658
某些	-10.5658
旁边的	-10.5663
下面的	-10.5664
培训	-10.5666
▁哈哈	-10.5668
游泳	-10.5669
很修身	-10.5675
在哪里	-10.5677
半小时	-10.5677
?????	-10.5678
海鲜	-10.5679
比较适合	-10.568
隔	-10.5684
倍	-10.5684
大家不要买	-10.5685
运输	-10.5685
有点卡	-10.5691
乘	-10.5696
提供了	-10.5697
使用了	-10.5697
了一个	-10.5699
耗电	-10.5701
也没什么	-10.5701
一斤	-10.5702
什么东西	-10.5703
刻	-10.5707
欢迎	-10.5709
抽	-10.5713
比较喜欢	-10.5714
这一次	-10.5715
几分钟	-10.5715
说没有	-10.5716
五星酒店	-10.5717
返	-10.5718
的方法	-10.572
感谢京东	-10.5722
超级喜欢	-10.5724
图画	-10.5725
严实	-10.573
上下	-10.573
还可以吧	-10.5733
太垃圾	-10.5737
来自	-10.574
重装	-10.574
天气	-10.574
一分钱一分货	-10.5741
抱怨	-10.5741
无聊	-10.5744
饮食	-10.5745
Z	-10.5751
印	-10.5753
我感觉	-10.5756
a	-10.5761
要不	-10.5765
LG	-10.5767
正面	-10.5768
重点	-10.577
反应慢	-10.5773
900	-10.5775
▁衣服收到了	-10.5775
摆	-10.5777
的大	-10.5778
一直都	-10.5782
裤脚	-10.5782
元钱	-10.5786
腰	-10.5787
二是	-10.5789
杂	-10.5789
就是这样	-10.5791
用着不错	-10.5792
那么好	-10.5793
这么大	-10.5796
招待所	-10.5798
都不如	-10.5802
有坏的	-10.5803
电量	-10.5803
▁买来	-10.5803
程度	-10.581
居然没有	-10.5811
很明显	-10.5816
价格比	-10.5818
也只有	-10.582
接触	-10.582
点个赞	-10.5825
▁回复	-10.5826
粗	-10.5826
味道还可以	-10.5831
当中	-10.5833
提到	-10.5835
不习惯	-10.5838
功能强大	-10.5839
说我	-10.5839
做工不错	-10.584
▁性价比很高	-10.584
系	-10.5841
领导	-10.5842
做得	-10.5842
退换货	-10.5843
单人间	-10.5847
随时	-10.5847
单词	-10.5854
结合	-10.5856
吃着	-10.5858
差价	-10.5858
好大	-10.5865
是一样的	-10.5866
咋	-10.5868
完全是	-10.5868
单独	-10.5869
在房间	-10.587
商店	-10.5871
保留	-10.5876
拖影	-10.5879
工	-10.5886
事实	-10.5887
型号	-10.5891
具	-10.5892
参加	-10.5892
鸡蛋	-10.5892
这一	-10.5894
器	-10.5895
比较近	-10.5897
中国的	-10.5897
...............	-10.5897
不开心	-10.5903
电话本	-10.5905
号买的	-10.5907
不可以	-10.5908
第二天就到了	-10.5909
非常舒服	-10.5913
温暖	-10.5915
选的	-10.5923
杭州	-10.5924
签收	-10.5926
很新	-10.5928
很有特色	-10.5932
大果	-10.5939
爱不释手	-10.594
没看到	-10.5946
信用卡	-10.5948
下了	-10.595
明明是	-10.595
初	-10.5951
环境很好	-10.5953
不出	-10.5957
送货速度	-10.5961
不合适	-10.5962
下次来	-10.5963
色差	-10.5963
石	-10.5964
小心	-10.5964
问我	-10.5969
地图	-10.5973
不是很方便	-10.5974
有着	-10.5978
满分	-10.5978
▁差差差	-10.5979
一是	-10.5982
感觉一般	-10.5986
看图	-10.5988
▁质量差	-10.5989
com	-10.5989
SIM	-10.599
的品质	-10.599
WIFI	-10.599
iPad	-10.599
KTV	-10.5991
下楼	-10.5992
要等	-10.5994
后盖	-10.5994
一个晚上	-10.5995
价格也不贵	-10.5999
梳子	-10.6001
用后	-10.6003
差评差评差评差评差评差评差评差评	-10.6004
味道也不错	-10.6005
酒店设施	-10.6005
姐姐	-10.6005
是怎么	-10.6009
不合理	-10.601
实体店	-10.6012
才是	-10.6016
和弦铃声	-10.6021
喜爱	-10.6022
离机场近	-10.6024
进来	-10.6025
中餐厅	-10.6028
多年	-10.6036
标配	-10.6039
星的	-10.604
住了两天	-10.6041
一生	-10.6047
就行了	-10.6047
地毯很脏	-10.605
房间是	-10.6051
支付	-10.6052
不停	-10.6053
生动	-10.6055
大小均匀	-10.6056
我相信	-10.6056
这个是	-10.6058
还是有	-10.6062
随意	-10.6064
红色	-10.6067
划痕	-10.6069
搞活动买的	-10.6075
清理	-10.6077
花钱	-10.6078
开的	-10.6078
体会	-10.608
昨晚	-10.6082
潮湿	-10.6082
Y	-10.6085
办事	-10.6089
稀	-10.609
挺新鲜的	-10.609
返修	-10.6094
▁另外	-10.6094
留下	-10.6099
醉了	-10.6099
都很方便	-10.6102
这次的	-10.6106
我买	-10.6109
打开后	-10.6114
应该不错	-10.6117
困难	-10.612
都烂了	-10.6124
但房间	-10.6126
这也是	-10.6139
我用	-10.6143
夏	-10.6143
居然还	-10.6146
号下单	-10.6146
梦想	-10.6146
容量	-10.6149
骗人的	-10.615
国人	-10.615
比较干净	-10.6155
很时尚	-10.6163
的现象	-10.6167
受益匪浅	-10.6167
▁非常差	-10.617
帅	-10.617
房间里面	-10.6172
商	-10.6178
都不行	-10.6185
储存	-10.6186
据	-10.6189
完整	-10.619
朝	-10.6195
班尼路	-10.6196
无所谓	-10.6199
从此	-10.6199
放弃	-10.6199
闪	-10.62
中医	-10.6201
自提	-10.6201
手感好	-10.6202
▁地理位置	-10.6203
精	-10.6205
素质	-10.6206
一片	-10.6208
弹性	-10.6209
往往	-10.621
也很方便	-10.6214
告诉我们	-10.6215
旅馆	-10.6215
如下	-10.6217
价格不贵	-10.6219
裸机	-10.622
用这个	-10.6221
全家	-10.6223
后就	-10.6226
唯一的	-10.6226
的痕迹	-10.6227
妈的	-10.6227
服务也	-10.6228
其中的	-10.623
令人满意	-10.6236
瓶盖	-10.6237
的要求	-10.624
▁这是我	-10.624
不是正品	-10.6242
座	-10.6242
解决了	-10.6244
总觉得	-10.6244
很温馨	-10.6245
不掉色	-10.6248
五星级	-10.6255
拿回来	-10.6258
价格保护	-10.6262
锦江之星	-10.6275
再也不买了	-10.6276
▁我在	-10.6277
当年	-10.6279
商务酒店	-10.6281
淡淡的	-10.6284
降价了	-10.6284
▁清扬	-10.6288
西餐厅	-10.6289
比起来	-10.629
千	-10.6291
扩展	-10.6294
就是没有	-10.6297
是一种	-10.6301
耐用	-10.6305
蓝屏	-10.6305
送给	-10.6306
没有人	-10.6308
觉	-10.631
地摊货	-10.6313
不好看	-10.6314
差很多	-10.6316
在前台	-10.6318
非常划算	-10.6318
房间大	-10.6319
简洁	-10.6319
添加	-10.6321
床垫	-10.6322
看不到	-10.6323
色泽	-10.6325
y	-10.633
服务太差	-10.6332
不靠谱	-10.6333
学校	-10.6333
非常好用	-10.6338
发霉	-10.634
这么差	-10.6341
光线	-10.6343
顺滑	-10.6343
进步	-10.6344
质量一般	-10.6345
灯光	-10.6346
使用起来	-10.6356
不咋地	-10.6359
让他们	-10.6361
很超值	-10.6365
柜台	-10.6372
特别的	-10.6373
本想	-10.6375
非常的好	-10.6383
翻译	-10.6384
打不开	-10.6385
住店	-10.6388
一个小	-10.6394
感觉比	-10.6402
官方	-10.6408
没有发票	-10.641
女士	-10.641
露	-10.6411
考	-10.6416
男士	-10.6418
▁唉	-10.6418
都是坏的	-10.6418
作者的	-10.6423
就跟	-10.6427
在京东购物	-10.6432
无线网卡	-10.6437
才可以	-10.6441
背景	-10.6443
携程的价格	-10.6443
手指	-10.6447
▁第二次购买了	-10.645
很强	-10.645
过程中	-10.6452
挺不错	-10.6452
这幺小	-10.6459
小的可怜	-10.646
试了	-10.6461
贵了	-10.6463
矿泉水	-10.6464
缺陷	-10.6464
球	-10.6467
酒店大堂	-10.6468
我对	-10.6472
返回	-10.6475
好东西	-10.6475
降了	-10.6477
客栈	-10.6478
拨	-10.6481
身边	-10.6481
东东	-10.6481
颜色很正	-10.6481
触摸	-10.6483
喔	-10.6484
看似	-10.6488
比以前	-10.6492
这么好	-10.6492
▁给	-10.6493
协调	-10.6493
但是还是	-10.6495
气死我了	-10.6497
谁买谁后悔	-10.6502
没有之一	-10.6504
劲	-10.6507
1.5	-10.6514
那就是	-10.6516
附近的	-10.6518
什么玩意	-10.6521
原本	-10.6533
斯	-10.6535
生命	-10.6539
38	-10.6541
洗的	-10.6545
时间长了	-10.6545
超喜欢	-10.6547
大学	-10.6551
都很不错	-10.6552
吃到	-10.6554
刚买	-10.6555
获得	-10.6556
房间的设施	-10.6556
害我	-10.6559
令我	-10.656
干嘛	-10.656
让人失望	-10.6566
根本不	-10.6567
没什么问题	-10.6567
快递公司	-10.6572
搭	-10.6573
我这	-10.6574
做好	-10.6587
夜里	-10.6587
很简单	-10.6588
▁真	-10.6591
只会	-10.6593
事件	-10.6593
官网	-10.6598
不需要	-10.6602
赶	-10.6605
活动价	-10.6608
雨	-10.6613
入住后	-10.6617
头皮痒	-10.6624
一部分	-10.6624
相当好	-10.6629
做工很好	-10.6631
随机	-10.6633
的活动	-10.6633
▁送货速度快	-10.6635
红外	-10.6636
早餐不错	-10.6639
海飞丝	-10.664
的爱	-10.6641
网页	-10.6642
半个月	-10.6643
▁京东自营	-10.6644
顺便	-10.6644
对待	-10.6646
只不过	-10.6653
习惯了	-10.6653
三星的	-10.6654
晚了	-10.6663
被我	-10.6665
发货速度快	-10.6665
比较舒服	-10.6669
选项	-10.6671
买水果	-10.6673
一直用	-10.6676
和图片	-10.6676
两箱	-10.6684
别墅	-10.6692
一起买的	-10.6693
快捷酒店	-10.6701
一大堆	-10.6702
两人	-10.6706
服务员态度	-10.6706
一点也不	-10.6709
摸	-10.6711
人们	-10.6717
这几天	-10.672
用了几天	-10.672
的名字	-10.672
以来	-10.6721
如果不	-10.6723
配备	-10.6724
很贵	-10.6725
维护	-10.6727
一款	-10.6728
大多数	-10.6729
特地	-10.6729
重视	-10.6729
集	-10.6732
自已	-10.6733
语音	-10.6734
穿在身上	-10.6737
零	-10.6737
运行速度	-10.6738
造型	-10.674
▁4、	-10.6741
IDE	-10.6742
点击	-10.6742
电吹风	-10.6743
电话薄	-10.6744
长时间	-10.6744
出现问题	-10.6747
耐心	-10.6749
预定的	-10.6753
去找	-10.6756
=	-10.6758
吸引	-10.6758
边框	-10.6759
丑	-10.676
地区	-10.676
这酒店	-10.6767
首先是	-10.6767
行政	-10.6792
出发	-10.6798
触屏	-10.6799
干燥	-10.6799
▁位置	-10.68
▁可以	-10.6808
天了	-10.6809
有点大	-10.6809
好不容易	-10.6812
过去了	-10.6814
的心	-10.6826
次品	-10.6826
亲们	-10.6826
▁说好的	-10.683
地铁站	-10.6832
真的好	-10.6836
两件	-10.6842
会议	-10.6846
句	-10.6847
弱	-10.685
了许多	-10.6852
京东的服务	-10.6854
预授权	-10.6859
▁发货	-10.686
非常小	-10.6861
不上	-10.6864
很值得	-10.6865
第二次买了	-10.6865
让自己	-10.6867
相当的	-10.6869
这个品牌	-10.6869
房间比较小	-10.687
本地	-10.6871
发货速度	-10.6872
很垃圾	-10.6878
桌子	-10.6878
信赖	-10.6878
总算	-10.688
在那	-10.6881
房间比较大	-10.6882
当晚	-10.6884
神速	-10.6886
比超市	-10.689
布局	-10.6891
用完了	-10.6891
品尝	-10.6893
要比	-10.69
续航	-10.6902
不过我	-10.6906
成长	-10.6909
微	-10.6911
有点慢	-10.6912
还以为	-10.6914
动物	-10.6915
感觉有点	-10.6921
祝	-10.6922
48	-10.6926
复杂	-10.6926
在北京	-10.6935
发现了	-10.6938
莫名其妙	-10.694
缩水	-10.6943
信誉	-10.6945
刘	-10.6946
最喜欢	-10.6947
音质不错	-10.6949
大门	-10.6953
两个字	-10.6957
首选	-10.6964
为什么不	-10.6966
中餐	-10.6969
送达	-10.6971
远离	-10.6971
观	-10.6974
住的是	-10.6974
水龙头	-10.6975
景区	-10.6976
的电	-10.6982
安卓	-10.6982
嘴	-10.6982
早就	-10.6984
期望	-10.699
供应	-10.6996
我只	-10.6999
半个小时	-10.7001
关门	-10.7004
黑店	-10.7004
FM	-10.7007
不觉得	-10.7008
把它	-10.7011
行政楼层	-10.7015
胡	-10.7016
礼物	-10.7018
过道	-10.7019
地理位置不错	-10.7019
大小正好	-10.702
不住	-10.702
然后就	-10.7022
坏果	-10.7032
发了	-10.7033
听筒	-10.7035
标志	-10.704
变成了	-10.704
迷你	-10.7043
用过的	-10.7044
后续	-10.7046
mini	-10.7048
前台接待	-10.7058
对了	-10.7061
阳光	-10.7063
市中心	-10.7067
书的内容	-10.707
口袋	-10.707
▁面料	-10.7076
二次	-10.708
让她	-10.7081
我们会	-10.7082
可口	-10.7082
忍不住	-10.7086
▁非常满意	-10.709
兴趣	-10.709
总体不错	-10.7094
非常好吃	-10.7094
给的	-10.71
就不要	-10.7102
剩下的	-10.7104
逛街	-10.7106
入住的时候	-10.7115
走到	-10.7116
大瓶	-10.7116
外出	-10.7117
.2.	-10.7117
居	-10.7121
读了	-10.7121
220	-10.7125
罢了	-10.7128
香格里拉	-10.7129
每一个	-10.713
▁不	-10.7133
320	-10.7136
本以为	-10.7138
狂	-10.715
不怕	-10.7151
忘	-10.7152
有头皮屑	-10.7154
▁个头	-10.7157
友	-10.7161
▁不新鲜	-10.7164
不出来	-10.7166
保护膜	-10.7171
没找到	-10.7174
居然有	-10.7175
▁对	-10.7177
圆	-10.7179
屏幕分辨率	-10.718
系统流畅	-10.7183
证明	-10.7183
房间不错	-10.7185
美味	-10.7187
内心	-10.7188
很精致	-10.7188
态度好	-10.7189
出现了	-10.7192
古	-10.7193
烟	-10.7194
客厅	-10.72
便利	-10.7201
可以在	-10.7204
入口	-10.7206
被骗了	-10.7206
品相	-10.7213
街上	-10.7219
验货	-10.7219
三次	-10.7223
右边	-10.7224
造	-10.7231
喝了	-10.7232
950	-10.7235
设定	-10.7236
凑	-10.7241
玩了	-10.7241
偏大	-10.7242
代表	-10.7243
每天都	-10.7245
闹中取静	-10.7245
王者荣耀	-10.7245
洗了头发	-10.7245
何	-10.7247
房间装修	-10.7248
杀	-10.7251
强大	-10.7251
发错了	-10.7252
主板	-10.7252
临	-10.7254
正版	-10.7255
▁真心	-10.7255
明显是	-10.7257
或者是	-10.7258
作为一个	-10.726
陈	-10.726
玉	-10.7263
聊	-10.7264
自助	-10.7269
的房价	-10.727
▁整体	-10.727
例如	-10.727
窗帘	-10.7271
己	-10.7272
我真的	-10.7273
在哪	-10.7274
外放	-10.7275
较小	-10.7276
不透气	-10.7279
结果还是	-10.728
数量	-10.7283
查房	-10.7285
这也	-10.7285
下午就到了	-10.7287
▁大品牌	-10.7288
太棒了	-10.729
▁酒店房间	-10.7291
主楼	-10.7292
难以	-10.7294
游客	-10.7295
包装不错	-10.7296
实现	-10.7297
这一款	-10.7302
地面	-10.7306
湿	-10.7313
价格是	-10.7313
表皮	-10.7315
LINUX	-10.7317
usb	-10.7317
书中的	-10.7322
涨	-10.7322
质量有保证	-10.7322
给她	-10.7324
认	-10.7329
掉头发	-10.7336
绕	-10.7339
联系人	-10.7341
找到了	-10.7341
抱歉	-10.7343
很久了	-10.7345
最高	-10.7347
▁不知道	-10.7349
特点	-10.7357
孩子的	-10.7358
第一次给差评	-10.7358
大多	-10.7361
很宽敞	-10.7365
包装的	-10.7368
运行速度快	-10.737
显示效果	-10.7371
咱	-10.7375
▁跟	-10.738
不让	-10.7381
介绍的	-10.7381
▁总体来说	-10.7382
正是	-10.7386
几个小时	-10.7386
被人	-10.7389
据说是	-10.7389
看一下	-10.7391
这次是	-10.7394
纸箱	-10.7394
蒙牛酸酸乳	-10.7394
处理器	-10.7399
调节	-10.7402
难得	-10.7402
标房	-10.7408
▁《	-10.7409
上有	-10.7409
还没到	-10.7411
甜脆	-10.7415
▁第一次在京东买水果	-10.7416
in	-10.7418
就象	-10.7421
延迟	-10.7423
早餐券	-10.7427
现金	-10.7428
一直是	-10.7429
鸟	-10.7434
高兴	-10.7434
区别	-10.7437
有活动	-10.7437
▁酒店设施	-10.7438
盖子	-10.7444
潮	-10.7449
没有耳机	-10.745
水货	-10.7453
电话号码	-10.7455
整理	-10.7457
犹豫	-10.7462
节	-10.7466
▁货	-10.7467
糟糕	-10.747
敢	-10.7473
.3.	-10.7476
所说的	-10.7482
很值	-10.7485
好些	-10.7487
闷	-10.749
行政房	-10.749
的要死	-10.7497
年轻	-10.7504
限制	-10.7504
这苹果	-10.7505
痕迹	-10.7505
一夜	-10.7507
还有赠品	-10.751
我把	-10.7511
看起来不错	-10.7512
这么久	-10.7515
效果好	-10.7517
非常近	-10.7518
面料很好	-10.7523
两张	-10.7526
恨	-10.7526
大赞	-10.7531
花花公子	-10.7532
重庆	-10.7532
有趣	-10.7533
好不好	-10.7534
交流	-10.7534
默认	-10.7536
叫车	-10.7536
原装	-10.7536
一大	-10.7537
综合	-10.7537
磕碰	-10.7537
没收到	-10.7539
厅	-10.754
不贵	-10.7543
次日达	-10.7547
的说	-10.7547
在上海	-10.7548
hell	-10.7548
营养	-10.755
TF	-10.7551
plus	-10.7551
EMS	-10.7551
▁货已收到	-10.7552
JD	-10.7552
橙子	-10.7552
早餐品种	-10.7554
这款平板	-10.7556
对我来说	-10.7559
配置不错	-10.7562
▁本人	-10.7564
托	-10.7567
不知道怎么样	-10.7568
出厂	-10.7574
为主	-10.7574
猕猴桃	-10.7575
七天	-10.7575
描写	-10.7576
住这家酒店	-10.7581
▁卖家	-10.7582
真诚	-10.7583
起毛	-10.7583
日常	-10.759
不划算	-10.759
不象	-10.7597
触摸屏	-10.7599
千万不要	-10.7599
的一个	-10.7599
马马虎虎	-10.7599
服务也好	-10.7601
▁质量好	-10.7602
总而言之	-10.7603
抢购	-10.7605
的空间	-10.7606
英寸	-10.7607
携程网	-10.7607
到处	-10.7608
.........	-10.7608
等着	-10.7608
清晰度	-10.7609
价廉物美	-10.7611
背面	-10.7614
现代	-10.7616
隔音效果	-10.7617
独立	-10.7618
的不行	-10.7619
男朋友	-10.7622
▁总的来说	-10.7622
滑盖	-10.7624
就被	-10.7629
楼的	-10.7632
非常快	-10.7635
但是这次	-10.7639
▁7	-10.764
第三天	-10.7647
了一些	-10.7653
价格合适	-10.766
还贵	-10.7664
压抑	-10.7669
是最	-10.7671
R	-10.7672
不太满意	-10.7677
摆设	-10.7678
采用了	-10.7678
▁很	-10.7678
客房服务	-10.768
故事情节	-10.7681
再去	-10.7682
懒得	-10.7683
不是太	-10.7684
选了	-10.7686
也还行	-10.7689
但也	-10.7689
▁5	-10.769
非常大	-10.769
喷	-10.7693
又小	-10.7695
让人觉得	-10.7697
这样的书	-10.7697
距	-10.7699
的一次购物	-10.7701
▁还好	-10.7701
▁这款	-10.7709
相当于	-10.772
次了	-10.772
景观	-10.7721
最差的一次	-10.7724
竟然是	-10.7732
收到货后	-10.7735
数码相机	-10.7736
太过	-10.7751
开启	-10.7756
静	-10.7757
我的手机	-10.7758
小时候	-10.7759
高档	-10.7761
的速度	-10.7762
脱	-10.7765
较为	-10.7766
金属	-10.7767
改装	-10.7767
质量很不错	-10.777
套间	-10.7771
蒙	-10.7772
高端	-10.7773
的照片	-10.7773
特别差	-10.7773
还是很	-10.7776
沐浴露	-10.7783
我们在	-10.7785
韩国	-10.7789
喜来登	-10.779
还小	-10.779
▁刚收到货	-10.7791
的颜色	-10.7794
显	-10.7799
食	-10.78
不愿意	-10.7802
让孩子	-10.7804
休闲	-10.7804
不去	-10.7805
服务非常好	-10.7806
引导	-10.7811
补偿	-10.7812
抓	-10.7813
比不上	-10.7816
桥	-10.7817
都不一样	-10.782
激活	-10.7821
孔	-10.7822
蛋	-10.7824
买了一个	-10.7827
解答	-10.7829
ip	-10.7833
整机	-10.7834
期望值	-10.7838
废话	-10.7838
处于	-10.7843
邮费	-10.7844
穿上去	-10.7844
小瓶的	-10.7845
沉	-10.7846
平均	-10.7846
价格适中	-10.7846
高速	-10.7846
要买	-10.7849
很烂	-10.7852
一分	-10.7854
▁质量非常好	-10.7854
看完后	-10.7856
不脆	-10.7856
即使是	-10.7856
房间太小	-10.7864
这次购物	-10.7866
作家	-10.7871
下车	-10.7871
机会	-10.7875
我知道	-10.7877
没毛病	-10.788
但却	-10.7881
在香港	-10.7881
面包	-10.7881
女生	-10.7881
商标	-10.7883
体积	-10.7885
瘦	-10.7885
记住	-10.7888
客服态度	-10.7894
讨厌	-10.7897
360	-10.7899
远离蒙牛	-10.7905
洗发	-10.7906
v	-10.7908
摸起来	-10.791
一点都不新鲜	-10.7911
为什么要	-10.7912
▁包装完好	-10.7912
也比较	-10.7914
进门	-10.7914
出版社	-10.7916
升级到	-10.7921
太烂	-10.7921
喊	-10.7922
打游戏	-10.7923
服务真的	-10.7925
为我们	-10.7926
价格高	-10.7926
都还不错	-10.7928
公寓	-10.7932
必	-10.7933
是这样的	-10.7934
位于	-10.7936
太坑人了	-10.7938
不见	-10.7945
应该说	-10.7947
等我	-10.7951
任	-10.7951
▁还没有用	-10.7955
服务极差	-10.7956
京	-10.7957
洗澡水	-10.7958
避免	-10.7959
没送	-10.7961
缺货	-10.7967
式的	-10.7967
供	-10.7973
服务水平	-10.7975
规格	-10.7979
比较少	-10.798
也方便	-10.7982
很硬	-10.7985
体现	-10.7985
取消了	-10.7987
掌握	-10.7987
一会儿	-10.7988
稍微有点	-10.799
办理	-10.7992
居然说	-10.7996
。。。。。。。	-10.8006
进行了	-10.8006
一次性	-10.801
服务员说	-10.8011
给客人	-10.8019
前台的	-10.8019
都好	-10.8022
班	-10.8024
害怕	-10.8024
爬	-10.8025
本来是	-10.8027
礼貌	-10.8029
美的	-10.803
亮点	-10.803
我买的是	-10.8032
很差劲	-10.8033
多汁	-10.8033
没有坏果	-10.8038
高级	-10.8041
广州	-10.8044
▁到货	-10.8045
明亮	-10.8046
原价	-10.8048
跟着	-10.8049
个字	-10.8051
怎	-10.8052
都觉得	-10.8054
的环境	-10.8056
损失	-10.8057
及其	-10.8057
有保障	-10.8058
不停的	-10.8059
令	-10.8061
建	-10.8062
▁环境不错	-10.8063
价格偏高	-10.8063
了一点	-10.8063
联	-10.8064
又脆又甜	-10.8071
第二个	-10.8076
个多小时	-10.8079
佩服	-10.8083
分开	-10.8083
轻薄	-10.8086
点钟	-10.8089
就把	-10.8092
组	-10.8098
很暖和	-10.8101
豪华间	-10.8101
命	-10.8102
还有坏的	-10.8102
▁送货快	-10.8103
▁送货	-10.8103
然后再	-10.8103
▁第一	-10.8104
失去	-10.8106
质量还不错	-10.8107
不错哦	-10.8107
比较高	-10.811
给你们	-10.8111
扯	-10.8113
尽量	-10.8114
第三次	-10.8117
投	-10.8119
的爱情	-10.812
搬	-10.8122
打字	-10.8123
多点	-10.8124
就直接	-10.8124
频繁	-10.8126
我一直	-10.8126
公斤	-10.8128
虫子	-10.8129
民族	-10.8129
▁质量太差了	-10.813
房门	-10.813
就已经	-10.813
美女	-10.8131
视	-10.8131
翻新机	-10.8131
里边	-10.8131
牙	-10.8131
值得表扬	-10.8133
▁太差	-10.8134
汉庭	-10.8135
穿着也很舒服	-10.8135
商务房	-10.8135
旅行装	-10.8136
不是太好	-10.8138
按钮	-10.8147
提供的	-10.8148
的水	-10.8148
质	-10.8148
很高兴	-10.8148
设施一般	-10.8148
看着不错	-10.815
携带方便	-10.815
就连	-10.8151
不得不说	-10.8153
坚决	-10.8156
蜡	-10.8157
服务态度也很好	-10.8162
京东超市	-10.8164
小样	-10.8164
▁味道不错	-10.8165
超级好	-10.8166
欠缺	-10.8166
并非	-10.8171
褪色	-10.8171
的火龙果	-10.8171
可能是因为	-10.8174
女孩子	-10.8175
好小	-10.8178
专	-10.818
就行	-10.818
可以考虑	-10.8183
搞错了	-10.8184
▁套装	-10.8185
冲着	-10.8185
运	-10.8187
上午下单	-10.819
SATA	-10.8191
物流速度快	-10.8192
就餐	-10.8197
看了这本书	-10.8197
主流	-10.8197
之中	-10.8197
▁配置	-10.8197
MB	-10.8203
到了酒店	-10.8204
快递哥	-10.8206
thinkpad	-10.8207
▁书	-10.8208
能接受	-10.8209
▁质量不好	-10.8216
注	-10.8218
小吃	-10.8219
清新	-10.8222
的同时	-10.8223
液体	-10.8225
害得我	-10.8229
粥	-10.823
裤子质量很好	-10.8231
▁我买的	-10.8231
遗憾的是	-10.8232
无可挑剔	-10.8232
其余	-10.8237
不发货	-10.8237
这条裤子	-10.8238
元左右	-10.8239
项	-10.8244
生活的	-10.8244
美好	-10.8245
在京东买了	-10.8248
次日	-10.8251
业	-10.8257
挺快的	-10.8258
产生	-10.826
也很舒服	-10.8262
佳	-10.8265
免	-10.8265
▁不错的酒店	-10.8266
必须差评	-10.8266
适应	-10.8266
2007	-10.8267
点心	-10.8269
r	-10.8272
强烈	-10.8275
有机会	-10.8276
磨	-10.8276
垃圾货	-10.8277
京东买东西	-10.8281
没有赠品	-10.8281
▁1,	-10.8281
买手机	-10.8282
一段时间	-10.8283
文笔	-10.8284
点的	-10.8285
是从	-10.8286
做到	-10.8287
一人	-10.8293
团队	-10.8298
不带	-10.83
的宾馆	-10.8303
▁老公	-10.8305
住这个酒店	-10.8306
国外	-10.8307
用的是	-10.8307
想法	-10.8308
优	-10.831
我个人	-10.831
包装也	-10.8312
▁苹果很新鲜	-10.8313
水份	-10.8315
得多	-10.8317
挺舒服的	-10.8317
你就	-10.8318
毒	-10.8319
分别	-10.8319
好几次	-10.8321
部门	-10.8327
思	-10.8328
H	-10.8329
没有窗户	-10.833
预装	-10.8335
一遍	-10.8337
房间不大	-10.8338
看到的	-10.8338
很远	-10.8338
的服务员	-10.834
懂得	-10.834
万色	-10.8342
成本	-10.8342
有点吵	-10.8342
还是可以	-10.8344
散热好	-10.8345
又有	-10.8346
地理位置很好	-10.8346
人多	-10.8347
漆	-10.8349
198	-10.8354
青岛	-10.8355
味道一般	-10.8355
不负责	-10.8357
机型	-10.8357
答案	-10.8358
可以直接	-10.836
归	-10.8364
很糟糕	-10.8366
行李员	-10.8369
见过	-10.8369
下的	-10.8375
双床房	-10.8378
异	-10.838
很清楚	-10.8381
千万不要买	-10.8382
民	-10.8387
华为平板	-10.839
备份	-10.8393
在用	-10.8396
▁是正品	-10.8402
▁很不满意	-10.8403
▁C	-10.8403
是我们	-10.8403
没错	-10.8405
无人	-10.8407
一路	-10.8407
查找	-10.8411
真的很喜欢	-10.8411
压力	-10.8412
不过还是	-10.8414
速	-10.8414
写了	-10.8415
摸着	-10.8418
接机	-10.8419
网友	-10.8419
恤	-10.8419
比超市便宜多了	-10.8421
在超市	-10.8423
身份证	-10.8427
这边	-10.8429
英雄	-10.8433
实践	-10.8433
恐怕	-10.8433
敷衍	-10.8434
▁正品	-10.8434
如今	-10.8434
▁尊敬的宾客	-10.8434
windows	-10.8434
大小也合适	-10.8434
WiFi	-10.8434
到底是	-10.8436
篇	-10.8437
▁老公很喜欢	-10.844
多一点	-10.844
上面的	-10.8443
最主要的是	-10.8444
太麻烦	-10.8447
没有想到	-10.8447
啥的	-10.8451
范围	-10.8453
就是一个	-10.8457
告诉你	-10.8458
不是很满意	-10.8461
给我的	-10.8462
反正我	-10.8466
服务台	-10.8469
奶粉	-10.8471
▁还可以吧	-10.8471
每次都是	-10.8473
资源	-10.8474
墙纸	-10.8475
4、	-10.8475
▁挺不错的	-10.8478
出问题	-10.8485
上次买的	-10.8489
下水	-10.849
指导	-10.8491
公	-10.8494
好吗	-10.8499
富	-10.8502
使用后	-10.8503
刚才	-10.8503
满了	-10.8504
有一点点	-10.8505
一百多	-10.8508
一小时	-10.8518
不易	-10.8519
看图片	-10.8519
买完	-10.852
▁我们	-10.8528
后再	-10.853
开窗	-10.8531
一根	-10.8533
他们说	-10.8534
下次再买	-10.8536
六个	-10.8539
▁一点都不好	-10.8539
早餐也	-10.8545
出的	-10.8547
就觉得	-10.8547
退货了	-10.855
坐在	-10.8555
改造	-10.8556
的购物体验	-10.8558
深度	-10.8561
失灵	-10.8561
不全	-10.8565
的小说	-10.8568
京东值得信赖	-10.857
一个小时	-10.8571
▁苹果很小	-10.8573
小果	-10.8576
刺鼻	-10.8577
▁裤子质量	-10.858
摄像	-10.8582
▁刚买	-10.8585
。7、	-10.8586
费劲	-10.8598
收到的	-10.86
感觉不好	-10.8603
率	-10.8607
前几天	-10.8613
京东配送	-10.8616
货品	-10.8616
卫生间的	-10.8617
该书	-10.8618
我朋友	-10.8618
比较不错	-10.8621
外观不错	-10.8622
四星酒店	-10.8622
给人感觉	-10.8624
对面就是	-10.8627
这套	-10.8627
其中一个	-10.864
做为	-10.8641
那幺小	-10.8641
版本的	-10.8642
小哥	-10.8642
▁早餐	-10.8645
通风	-10.8645
进房间	-10.8647
是我喜欢的	-10.8654
外国	-10.8654
彩信	-10.8655
挺实惠的	-10.8659
通过携程	-10.866
本子	-10.8663
以后还是	-10.8664
没用过	-10.8668
但酒店	-10.8669
顶多	-10.8671
黑边	-10.8671
▁性价比不错	-10.8674
换个	-10.8675
姓名	-10.8676
现场	-10.8676
步	-10.8681
怎么会	-10.8682
用用	-10.8682
差评差评	-10.8685
凭	-10.8686
沙滩	-10.8687
格式	-10.8688
不负责任	-10.8689
模	-10.8689
纸张	-10.869
高大上	-10.8692
到处都是	-10.8693
愤怒	-10.8696
逛	-10.8696
都是这样	-10.8697
交易	-10.8699
很亲切	-10.8701
u	-10.8705
叫了	-10.8705
离店	-10.8709
返现	-10.8711
可是我	-10.8713
艺术	-10.8713
影	-10.8715
设施齐全	-10.8716
价格低	-10.8716
▁大堂	-10.8717
故	-10.8717
阳	-10.8718
面前	-10.872
其他人	-10.872
▁比	-10.8721
码的	-10.8725
来买	-10.8726
大堂副理	-10.873
还是很好的	-10.873
下次还买	-10.8731
你要	-10.8734
太让人失望了	-10.8736
数学	-10.8737
景	-10.8739
生日	-10.8739
意义	-10.8741
右	-10.8741
投资	-10.8742
神秘	-10.8742
耶	-10.8742
花洒	-10.8743
太假了	-10.8744
哥哥	-10.8744
歧视	-10.8745
兄弟	-10.8745
结构	-10.8746
散步	-10.8746
CTRIP	-10.8746
期待您的再次光临	-10.8747
行动	-10.8748
公分	-10.875
瓶口	-10.875
2-3	-10.8752
忍了	-10.8752
引	-10.8754
尺码标准	-10.8755
懒得退了	-10.8757
一一	-10.8758
拉拉	-10.8759
女孩	-10.876
晚上睡觉	-10.8762
图像	-10.8762
顿	-10.8763
一个个	-10.8766
步行街	-10.8767
未来	-10.8768
!!!!!!!	-10.8772
商业	-10.8773
总共	-10.8773
我没	-10.8774
浅	-10.8776
▁价格实惠	-10.8781
在房间里	-10.8786
▁T	-10.8787
一直信赖京东	-10.8788
质量还可以	-10.8789
;3.	-10.8791
一颗星都不想给	-10.8792
全都	-10.8793
!”	-10.8797
京东的物流	-10.88
感觉到	-10.8803
另外一个	-10.8806
第四	-10.8806
▁谢谢	-10.8807
但这次	-10.881
▁酒店位置不错	-10.8812
非常适合	-10.8815
的设施	-10.8815
破旧	-10.8817
细心	-10.8818
也算是	-10.8819
难道是	-10.8819
保价	-10.882
特别满意	-10.8822
退回	-10.8824
详细	-10.8828
俺	-10.8828
店大欺客	-10.8829
状况	-10.8833
价格公道	-10.8836
我想说	-10.8836
吃完了	-10.8842
拿去	-10.885
一定会	-10.8851
很轻	-10.8854
幽默	-10.8859
正确	-10.886
种类	-10.8865
的礼物	-10.8866
涨价	-10.887
而且有	-10.8871
时间长	-10.8871
已收到	-10.8872
服务态度差	-10.8874
可以选择	-10.8875
很美	-10.8886
这回	-10.8886
%	-10.8887
物流速度太慢	-10.8888
的情节	-10.8888
带来	-10.8892
好久	-10.8894
在我们	-10.8896
不知是	-10.8901
光顾	-10.8903
听歌	-10.8904
碎	-10.8905
穿过	-10.8909
▁潘苹果	-10.8909
紧张	-10.891
绿	-10.8911
折腾了	-10.8913
铺	-10.8916
无耻	-10.8917
外型	-10.8918
还需要	-10.8923
相对于	-10.8925
话说	-10.8925
却又	-10.893
没反应	-10.8932
碰	-10.8936
千万别	-10.8939
?”	-10.8939
太吵	-10.894
普通的	-10.8942
用了一段时间	-10.8944
写着	-10.8944
到晚上	-10.8951
瞎	-10.8951
回忆	-10.8958
出版	-10.8959
虽然有	-10.896
的车	-10.8962
查看	-10.8963
强多了	-10.8968
先是	-10.8971
青春	-10.8973
的感受	-10.8974
赶快	-10.8976
弄得	-10.8977
赔	-10.8988
熟悉	-10.8989
插图	-10.8991
登	-10.8992
挺大的	-10.8994
小黑	-10.8996
才收到	-10.8998
上手	-10.8999
批	-10.9002
的系统	-10.9002
点儿	-10.9003
很清爽	-10.9004
值得一看	-10.9006
开不了机	-10.9008
^	-10.9009
太高	-10.9016
▁挺好	-10.9018
卖假货	-10.9023
充足	-10.9023
速度也快	-10.9024
鞋	-10.9025
PC	-10.9027
挺甜的	-10.9028
扎	-10.9028
赶飞机	-10.9029
命运	-10.9031
▁每次	-10.9032
墙上	-10.9034
虚	-10.9041
▁一个字	-10.9042
人性	-10.9043
练	-10.9046
局	-10.9049
诺基亚	-10.9052
豪华大床房	-10.9053
皮肤	-10.9055
以往	-10.9056
桌面	-10.9057
搞的	-10.906
寒	-10.9063
贼	-10.9063
幸亏	-10.9064
政府	-10.9064
清洗	-10.9066
真是无语	-10.9068
喽	-10.9068
因为今天买明天就可以送到	-10.907
注册	-10.907
一家人	-10.907
买了两条	-10.9071
年前	-10.9073
旅客	-10.9079
的想法	-10.9081
的时候就	-10.9083
这个功能	-10.9084
预约	-10.9084
卧室	-10.9085
放到	-10.9086
很多东西	-10.9086
很愉快的一次购物	-10.9086
不好使	-10.9087
也很漂亮	-10.9088
610	-10.9088
个装	-10.9089
表达	-10.9092
被坑了	-10.9095
服务很差	-10.9099
失望了	-10.9102
其他还好	-10.9107
满减	-10.9107
有保证	-10.911
忍	-10.9111
来形容	-10.9113
个头很小	-10.9116
今晚	-10.9117
大声	-10.9119
很像	-10.9119
图书	-10.912
夜间	-10.9124
月份	-10.9125
绝	-10.913
这本书是	-10.9132
建议大家不要买	-10.9132
不错的选择	-10.9134
外观设计	-10.9134
快递很给力	-10.9138
过年	-10.914
你是	-10.914
主人公	-10.9144
推出	-10.9147
上京东	-10.9148
敲门	-10.9151
的做法	-10.9153
讲解	-10.9153
～～～	-10.9154
顺丰	-10.9154
分辨率低	-10.9156
针	-10.9158
家的	-10.916
洗头发	-10.916
的意思	-10.9162
比较旧	-10.9162
太少了	-10.9165
玩王者荣耀	-10.9165
f	-10.9166
就到	-10.9166
的行为	-10.9166
卡机	-10.9169
的软件	-10.917
味道还不错	-10.917
灵	-10.9172
▁送货很快	-10.9172
目	-10.9175
的理由	-10.9176
马上就	-10.9176
浪费时间	-10.9178
一切都	-10.9184
完好无损	-10.9188
承担	-10.919
太失望	-10.9196
发来	-10.9199
拨打	-10.9199
去超市	-10.9202
整整	-10.9202
生活中	-10.9203
能在	-10.9206
观念	-10.9206
景色	-10.9209
也行	-10.9209
我没有	-10.921
大概是	-10.9213
▁商家	-10.9213
核	-10.9216
设施也	-10.9218
小点	-10.9225
性能不错	-10.9227
加绒	-10.9228
好一些	-10.9233
很低	-10.9233
后悔买了	-10.9234
▁用了一段时间	-10.9236
我当时	-10.9241
甜甜的	-10.9242
用了之后	-10.9243
▁第二次购买	-10.9245
的感情	-10.9254
十一	-10.9257
喜欢吃	-10.9257
在于	-10.9257
▁洗了	-10.9257
理念	-10.9259
十分钟	-10.926
酸的	-10.9261
补发	-10.9261
170	-10.9264
干净整洁	-10.9264
不理	-10.9265
确	-10.9265
环境好	-10.9267
送吹风机	-10.9275
拍照效果	-10.9275
入门	-10.9276
分钟左右	-10.9279
▁作为	-10.9281
不信	-10.9282
女主	-10.9282
▁物流太慢	-10.9285
经济型酒店	-10.9285
属	-10.9285
武	-10.9289
配套	-10.929
热闹	-10.9291
这样的服务	-10.9292
巨	-10.9295
不该	-10.9295
它们	-10.9295
教材	-10.9296
商务中心	-10.9298
多么	-10.93
的一些	-10.931
略显	-10.9316
营业	-10.9318
快递师傅	-10.9319
运气	-10.932
恢复	-10.9322
申请退货	-10.9323
美中不足	-10.9323
酒店房间	-10.9324
更差	-10.9324
的工作人员	-10.9325
仿佛	-10.9326
今	-10.9327
书名	-10.9328
彩	-10.9329
很贴心	-10.9331
尽快	-10.9333
电子	-10.9334
保鲜	-10.9335
新闻	-10.9335
这个宾馆	-10.9337
大巴	-10.9339
一打开	-10.9341
三楼	-10.9346
▁用着	-10.9349
的印象	-10.9352
有限	-10.9353
IP	-10.9355
▁宝贝收到	-10.9356
弹	-10.9357
的书籍	-10.936
帅气	-10.936
别说	-10.936
熟	-10.9361
差异	-10.9363
洗了之后	-10.9364
▁看到	-10.9364
可怕	-10.9365
运行内存	-10.9366
▁质量一般	-10.9367
开发票	-10.9368
的果	-10.937
树	-10.937
浏览	-10.9371
送到家门口	-10.9372
港	-10.9378
支	-10.9384
美中不足的是	-10.9384
h	-10.9384
搜索	-10.9384
识别	-10.9388
纠结	-10.9389
▁还有就是	-10.9389
措施	-10.9389
也挺	-10.939
欺	-10.9393
打包	-10.9393
间房	-10.9394
健	-10.9395
短消息	-10.9396
的语言	-10.9397
鼓励	-10.9397
使得	-10.9397
铁	-10.9399
链接	-10.94
明显的	-10.9401
判断	-10.9401
苏	-10.9402
因为在京东买的东西太多太多	-10.9402
有图有真相	-10.9403
Linux	-10.9403
医生	-10.9403
指示灯	-10.9403
app	-10.9403
安心	-10.9404
床铺	-10.9405
就是快	-10.9406
交通比较方便	-10.9406
发货速度非常快	-10.9406
多数	-10.9406
下次还会再来	-10.9406
笑话	-10.9408
我儿子	-10.9409
商务大床房	-10.941
极为	-10.9411
▁无语	-10.9413
未评价	-10.9414
▁酒店环境	-10.9415
结帐的时候	-10.9417
调查	-10.942
靠谱	-10.9427
▁失望	-10.9428
渣	-10.943
这样子	-10.9433
冻	-10.9435
给了我	-10.9441
还有个	-10.9441
▁房间设施	-10.9445
远远	-10.9446
太次了	-10.9447
比较新	-10.9448
毫升	-10.9449
第二次购买	-10.945
什么鬼	-10.9451
▁支持	-10.9453
▁6.18	-10.9454
更大	-10.9456
的早餐	-10.9457
导航键	-10.9458
这么多年	-10.946
▁房间很大	-10.946
利益	-10.9464
对自己	-10.9465
床上	-10.9465
的购物	-10.9465
骗	-10.9465
就送到了	-10.947
也都	-10.9472
要不然	-10.9475
上车	-10.9476
酒店有	-10.9476
雪	-10.9479
弟弟	-10.948
即可	-10.9482
各方面都	-10.9482
还没有吃	-10.9483
题	-10.9483
东西了	-10.9484
拿出	-10.9485
一般的	-10.9487
无硅油	-10.9488
声音小	-10.9489
可以把	-10.949
浪费了	-10.9495
会出现	-10.9499
烫手	-10.9501
封面	-10.9503
重要的是	-10.9504
说的是	-10.9506
真是无语了	-10.9507
巴士	-10.9509
无良商家	-10.951
▁对了	-10.9511
是没有	-10.9513
呆	-10.9513
非常新鲜	-10.9517
这间酒店	-10.9519
透	-10.952
开箱	-10.952
活着	-10.9522
竟然没有	-10.9523
报纸	-10.9524
UT	-10.9526
不到位	-10.9527
实在不敢恭维	-10.9528
关了	-10.9529
特别舒服	-10.9531
此次	-10.9533
▁掉色	-10.9534
隔音不好	-10.9535
如同	-10.9536
很脆很甜	-10.9536
便捷	-10.9543
制	-10.9544
很卡	-10.9544
用到	-10.9548
面板	-10.9548
出租车司机	-10.9552
钢琴烤漆	-10.9554
收拾	-10.9556
的企业	-10.9568
声音很大	-10.9568
不论	-10.9578
到了晚上	-10.9578
半年	-10.9586
施工	-10.9586
大床间	-10.9587
512	-10.9589
公司的	-10.9591
快点	-10.9593
念	-10.9595
订的是	-10.9595
疼	-10.96
尊重	-10.9602
齐	-10.9607
680	-10.9607
得了	-10.961
没有一个	-10.961
简	-10.9613
还算方便	-10.9618
东苑	-10.962
多个	-10.9622
原因是	-10.9623
每人	-10.9625
功能键	-10.9628
都不给	-10.9629
第二次购买了	-10.963
达不到	-10.9639
手工	-10.9642
沙	-10.9642
有一天	-10.9644
角度	-10.9645
莫	-10.9646
翻看	-10.9646
平米	-10.9647
的哦	-10.9649
老旧	-10.9653
陪	-10.9654
厘米	-10.9654
又便宜	-10.9657
驱动盘	-10.9659
闲	-10.966
地说	-10.9662
下班	-10.9664
耐	-10.9665
换了个	-10.9665
比较一般	-10.9665
旅行	-10.9665
考虑到	-10.9666
章	-10.9667
买了两箱	-10.9668
▁原来	-10.9668
端	-10.9668
背后	-10.9669
头皮发痒	-10.967
房客	-10.9671
跟图片	-10.9673
适用	-10.9679
个赞	-10.9679
真垃圾	-10.968
性价比比较高	-10.9683
回酒店	-10.9683
房间内的	-10.9683
▁10	-10.9684
震撼	-10.9686
减少	-10.9687
气氛	-10.9696
值得买	-10.9696
阿姨	-10.9696
▁前台	-10.9698
但感觉	-10.9699
大厦	-10.9699
650	-10.9701
在这个	-10.9701
酸甜	-10.9701
上楼	-10.9702
图标	-10.9702
电器	-10.9703
密码	-10.9707
物流也很给力	-10.9708
巧克力	-10.9708
挺大	-10.9709
办理入住	-10.9709
面的	-10.971
钟	-10.971
双人房	-10.971
恶	-10.9711
很顺滑	-10.9711
外皮	-10.9712
值得一提的是	-10.9713
园	-10.9715
没有热水	-10.9715
胶	-10.9715
中有	-10.9717
也不大	-10.9717
又要	-10.9718
骚扰电话	-10.9722
签字	-10.9723
卡梅拉	-10.9724
泥	-10.9725
有些失望	-10.9725
秀	-10.9734
雅	-10.9735
床上用品	-10.9738
发觉	-10.9739
佛	-10.974
呦	-10.9742
流程	-10.9746
▁发货很快	-10.9747
联通	-10.9747
拿在手里	-10.9747
pad	-10.9747
GHOST	-10.9747
讨论	-10.9748
读卡器	-10.9748
可想而知	-10.9748
NOKIA	-10.9748
⊙)...	-10.9749
租	-10.9749
这款机子	-10.9749
大点	-10.975
成都	-10.9752
得知	-10.9752
没时间	-10.9752
我以为	-10.9757
现在是	-10.9757
穿着也舒服	-10.9758
相差	-10.9759
给个赞	-10.9759
差的	-10.9761
醒	-10.9762
▁这裤子	-10.9764
难闻	-10.9764
取消订单	-10.9768
好很多	-10.9768
开会	-10.9769
润发乳	-10.9776
不建议买	-10.9777
团	-10.9781
之类	-10.9783
▁服务态度	-10.9787
先不说	-10.9788
天下	-10.979
运用	-10.9796
72	-10.9797
喜	-10.9798
▁包装好	-10.98
快递也很给力	-10.98
不喝蒙牛	-10.9802
不小	-10.9804
正常使用	-10.9806
跑了	-10.9809
纯粹	-10.981
接到	-10.9811
柔顺	-10.9815
心疼	-10.9815
挺多的	-10.9818
就得	-10.9823
很多次	-10.9826
给个	-10.9828
是那种	-10.9828
就这	-10.9832
有不少	-10.9833
成人	-10.9834
有些地方	-10.9835
很重	-10.9841
满意的	-10.9841
有点贵	-10.9843
注明	-10.9847
亲自	-10.9848
买之前	-10.985
客服人员	-10.985
必须要	-10.9852
剧	-10.9853
▁IN	-10.9853
一面	-10.9855
物流也	-10.9855
国产的	-10.9856
漫画	-10.9857
京东现在	-10.9861
也还不错	-10.9862
的历史	-10.9865
信得过	-10.9867
钥匙	-10.9867
不通	-10.987
家里人	-10.987
的图片	-10.9874
好喜欢	-10.9875
不耐烦	-10.9877
不知道什么原因	-10.9877
要去	-10.9877
内存太小	-10.9878
待机时间长	-10.9882
不值这个价钱	-10.9886
协商	-10.9887
都被	-10.9889
给满分	-10.989
早知道	-10.9891
仅仅	-10.9892
整体来说	-10.9896
?)	-10.9897
天才到	-10.9899
包装精美	-10.9901
遇见	-10.9905
过分	-10.9907
烂苹果	-10.991
不好的	-10.9911
透过	-10.9913
不能上网	-10.9913
一塌糊涂	-10.9914
再看	-10.9915
滋源	-10.9916
还未	-10.9917
虽然不是	-10.9928
铃音	-10.9933
出水	-10.9934
试穿	-10.9934
的笔记本	-10.9935
但愿	-10.9937
大连	-10.994
头上	-10.9947
内胆包	-10.9947
午餐	-10.9949
笑容	-10.9951
灰色	-10.9951
▁晚上	-10.9953
过得去	-10.9956
服了	-10.9956
潮流	-10.9957
再用	-10.9959
幸运	-10.9961
都挺好的	-10.9961
还有烂的	-10.9965
深入	-10.997
不建议	-10.997
是很	-10.997
这么快	-10.9972
这部	-10.9975
玩的	-10.9976
有点儿	-10.9976
简约	-10.9978
!2、	-10.9981
我从	-10.9981
感觉还行	-10.9982
绝不	-10.9985
卡槽	-10.9985
才找到	-10.9987
▁说是	-10.9988
买书	-10.9989
也不给	-10.999
令人失望	-10.9993
货真价实	-10.9994
大屏	-10.9994
医院	-10.9996
车子	-10.9996
也不用	-10.9997
也不甜	-10.9998
比较吵	-10.9999
大师	-10.9999
倒闭	-11.0001
的思想	-11.0003
宾馆的	-11.0004
音质很好	-11.0004
信心	-11.0006
还有点	-11.0006
碰伤	-11.0008
技巧	-11.0009
没有送	-11.0013
删	-11.0015
让客人	-11.0021
▁看着不错	-11.0021
当你	-11.0021
▁便宜	-11.0025
也挺好	-11.0025
第一次差评	-11.0026
功能齐全	-11.0026
屏幕上	-11.0027
有点麻烦	-11.0027
激动	-11.0028
的评价都	-11.0029
非常实惠	-11.003
手感也不错	-11.0033
卡的	-11.0036
很生气	-11.0037
很快就	-11.0037
没人理	-11.0037
闪光灯	-11.0041
士	-11.0044
这手机	-11.0046
改了	-11.0053
发信息	-11.0054
慎重	-11.0055
大一点	-11.0056
豆浆	-11.006
真假	-11.0063
最最	-11.0063
模具	-11.0063
视野	-11.0063
不肯	-11.0065
这款洗发水	-11.0066
送货到家	-11.0071
媒体	-11.0074
的房	-11.0074
蒙牛伊利	-11.0075
最小的	-11.0077
这位	-11.0079
银	-11.008
很可爱	-11.0083
华为的产品	-11.0085
店主	-11.0086
尔	-11.0086
希望改进	-11.0087
▁由于	-11.0089
普遍	-11.009
表扬	-11.0091
划	-11.0091
差太多	-11.0094
16:9	-11.0095
读过	-11.0095
争	-11.0096
从来没有	-11.0097
拿到了	-11.0098
翻开	-11.0099
ing	-11.0099
不超过	-11.01
福	-11.01
星标准	-11.01
计划	-11.0101
在一个	-11.0102
标识	-11.0102
庄子	-11.0102
短袖	-11.0103
欲	-11.0103
▁宝贝已收到	-11.0105
我为什么每个商品	-11.0106
太烂了	-11.0106
大洋	-11.0107
有货	-11.0107
恶劣	-11.0108
这是一个	-11.011
。1、	-11.0111
夜晚	-11.0113
能有	-11.0114
紧凑	-11.0116
落后	-11.0118
浓	-11.0125
感觉挺好的	-11.0125
拉链	-11.0126
试穿了一下	-11.0128
999	-11.0131
弄的	-11.0132
闹心	-11.0132
一直用这个牌子	-11.0134
芯	-11.0135
现在还	-11.0137
健身房	-11.014
有用	-11.0142
比较合适	-11.0143
下载的	-11.0146
京东的东西	-11.0146
的东东	-11.0149
有烂的	-11.015
修了	-11.015
童话	-11.0151
在线	-11.0154
失败的一次购物	-11.0158
两边	-11.0158
课	-11.0159
皱	-11.016
快递给力	-11.0161
童年	-11.0161
如果没有	-11.0162
也在	-11.0162
污渍	-11.0163
出库	-11.0164
日用品	-11.0165
在京东买的	-11.0166
▁摄像头	-11.0168
给京东	-11.0168
货了	-11.0169
产品质量	-11.0169
情感	-11.017
吵闹	-11.0171
送来的	-11.0171
没发现	-11.0173
炫	-11.0173
其他都	-11.0176
总有	-11.0176
年代	-11.0178
进了房间	-11.018
波	-11.0182
味道还行	-11.0183
可爱的	-11.0184
妈	-11.0185
工人	-11.0186
正宗	-11.0187
260	-11.0188
▁2006	-11.019
。1.	-11.019
邮	-11.0192
工艺	-11.0193
要用	-11.0193
:1	-11.0194
咬	-11.0195
前天	-11.02
个房间	-11.02
全新	-11.0201
号下的单	-11.0204
大小适中	-11.0205
个性	-11.0206
二手	-11.0207
有好多	-11.0209
▁满意	-11.0209
玩意	-11.0212
系列的	-11.0212
▁多次购买	-11.0213
不明显	-11.0215
不论是	-11.0217
女朋友	-11.0218
好好好	-11.0218
透明	-11.0218
倒霉	-11.0218
▁东西很不错	-11.022
大小刚好	-11.022
产	-11.0221
闪退	-11.0223
说说	-11.0227
比较失望	-11.0227
可以理解	-11.0228
炒	-11.0228
▁活动买的	-11.0229
无色差	-11.0234
洗头膏	-11.0236
跑到	-11.0236
颗	-11.0238
喜欢的	-11.024
积极	-11.024
颗星	-11.0241
要走	-11.0241
演	-11.0241
差别	-11.0247
年轻人	-11.0247
做事	-11.0248
满意的一次购物	-11.025
好奇	-11.0256
▁苹果很好吃	-11.0257
面料很舒服	-11.0257
都发霉了	-11.0258
很痒	-11.0258
洗完头	-11.0258
外面的	-11.0259
编	-11.0259
也没用	-11.0263
男女	-11.0266
备	-11.0269
十足	-11.0269
爽口	-11.027
绿色	-11.0272
镜头	-11.0273
标准的	-11.0274
霉	-11.0277
最起码	-11.0278
游玩	-11.0279
送个	-11.028
的时代	-11.0281
不灵	-11.0282
去拿	-11.0282
谁知	-11.0283
苏州	-11.0284
两本	-11.0285
不动	-11.0288
点左右	-11.029
买了这本书	-11.0291
赚	-11.0295
1.	-11.0295
5.	-11.0297
给他们	-11.0298
不及	-11.0299
质量可以	-11.03
到机场	-11.0301
破坏	-11.0303
干脆	-11.0304
前往	-11.0308
本来以为	-11.0309
除非	-11.0311
相信华为	-11.0317
着急	-11.0317
长的	-11.0317
个坏的	-11.0317
晒	-11.0318
羡慕	-11.032
叙述	-11.0321
这价格	-11.0321
看不出来	-11.0322
的差不多	-11.0322
的大床房	-11.0323
1、	-11.0324
音质好	-11.0324
砸	-11.0324
给您	-11.0325
香甜	-11.0326
的吧	-11.033
感冒	-11.0331
待机时间短	-11.0335
好几	-11.0336
追	-11.0339
都没用	-11.0344
优化	-11.0345
▁9	-11.0354
省钱	-11.0354
够了	-11.0356
力量	-11.0357
毫升的	-11.0362
横	-11.0364
不能使用	-11.0364
▁垃圾京东	-11.0366
春节	-11.0368
打开箱子	-11.037
398	-11.0374
又没有	-11.0376
感觉很舒服	-11.0377
而且还是	-11.0377
一直都是	-11.0377
型的	-11.0378
交通很方便	-11.038
巴	-11.0383
就当	-11.0384
哒	-11.0388
450	-11.0389
关掉	-11.0391
无关	-11.0401
然后又	-11.0408
圈	-11.0412
我发现	-11.0412
▁外观不错	-11.0418
用一段时间	-11.0418
不是一般的	-11.0418
无法使用	-11.0418
根本就不	-11.0421
不止	-11.0422
频道	-11.0425
证	-11.0425
边缘	-11.0425
▁地理位置不错	-11.0427
现在都	-11.0428
行货	-11.043
网卡	-11.0431
守	-11.0435
录	-11.0439
公平	-11.044
不在乎	-11.0441
没意思	-11.0441
勇敢	-11.0445
海边	-11.0446
杠杠的	-11.0447
也非常	-11.0447
健身	-11.0448
异味	-11.0448
俗	-11.0449
十几	-11.0449
诗	-11.045
广	-11.0451
有些小	-11.0452
气人	-11.0452
▁样子	-11.0452
速度也很快	-11.0456
感悟	-11.0457
不要再	-11.0458
宣传的	-11.0459
敲	-11.0462
狼	-11.0463
大失所望	-11.0464
粒	-11.0464
一场	-11.0465
肚子	-11.0465
的士	-11.0466
操	-11.0466
▁觉得	-11.0467
独立显卡	-11.0469
货到付款	-11.0469
这平板	-11.047
对此	-11.047
同一个	-11.0471
态度不好	-11.0471
客人的	-11.0472
身体健康	-11.0472
质疑	-11.0473
长大	-11.0473
就是为了	-11.0474
DOS	-11.0476
不近人情不近人情不近人情不近人情	-11.0476
拒收	-11.0477
衣柜	-11.0477
册	-11.0478
完全一致	-11.0479
销量	-11.048
男朋友很喜欢	-11.048
▁我的	-11.0483
了好多	-11.0483
感觉挺好	-11.0483
也一样	-11.0485
还不能	-11.0485
出了问题	-11.0486
好几天	-11.0487
;&	-11.0488
▁外形	-11.0488
时刻	-11.0489
考试	-11.049
特别不好	-11.0491
下的订单	-11.0491
的呢	-11.0493
前台人员	-11.0494
那本	-11.0495
厦门	-11.0496
连不上	-11.0497
系统盘	-11.0502
一直没	-11.0502
房间一般	-11.0505
天才	-11.0505
放着	-11.0506
看电视剧	-11.051
全国	-11.0512
之间的	-11.0512
蒙牛酸奶	-11.0514
可以去	-11.0514
最差	-11.0515
鄙视	-11.0517
非常实用	-11.0518
▁货收到了	-11.0519
看这本书	-11.0519
没有烂的	-11.052
走走	-11.0521
脑子	-11.0523
▁非常好用	-11.0527
比较慢	-11.0534
不佳	-11.0535
▁差劲	-11.0535
不是说	-11.0536
很强大	-11.0539
害	-11.0549
回购	-11.0549
110	-11.055
切开	-11.0551
极了	-11.0555
商务间	-11.0557
是要	-11.0558
▁用了几天	-11.0562
XL	-11.0565
就只有	-11.0568
生产日期	-11.057
的不得了	-11.057
总感觉	-11.0572
愿	-11.0573
精细	-11.0574
质地	-11.0577
还是不错	-11.0577
京东了	-11.0577
很帅	-11.0578
女子	-11.0579
本来就是	-11.058
▁性价比	-11.0581
其他酒店	-11.0582
反应快	-11.0587
堵	-11.0589
上海的	-11.0589
思维	-11.059
有点远	-11.059
还会再来的	-11.059
省了	-11.0594
一颗	-11.0598
洗过	-11.0599
又不	-11.0599
用了两天	-11.0606
PS	-11.0607
坏掉了	-11.0608
老化	-11.0611
▁个头不大	-11.0612
说法	-11.0616
收到的时候	-11.0624
美好的	-11.0625
满满的	-11.0625
一点都不甜	-11.0627
要到	-11.063
要不要	-11.0631
误	-11.0632
我们将	-11.0632
我们也	-11.0632
客观	-11.0634
性价比超高	-11.0635
附	-11.0636
大家可以	-11.0639
在当地	-11.064
规范	-11.0645
的形象	-11.0646
客服也	-11.0646
加绒的	-11.065
整齐	-11.0653
积分	-11.0655
还没开始用	-11.0655
五分	-11.0656
周围的	-11.0657
同样是	-11.0661
带了	-11.0663
洗了一次	-11.0665
地下	-11.067
离火车站	-11.067
房间里有	-11.0673
以后再也不	-11.0678
▁小巧	-11.0682
客服态度很好	-11.0683
06	-11.0684
那样的	-11.0687
项目	-11.0687
纯棉的	-11.0688
不是很喜欢	-11.0688
▁结果	-11.0691
。。。。。。。。。	-11.0692
优秀	-11.0693
过敏	-11.0694
之前的	-11.0695
价格上	-11.0696
168	-11.0697
多次购买	-11.0698
嫌	-11.0699
没有破损	-11.07
的果子	-11.0707
时光	-11.0709
我的房间	-11.0711
.......	-11.0714
这样的苹果	-11.0714
很感动	-11.0717
质量太差了	-11.0718
也是最后一次	-11.0718
没吃	-11.0718
一星期	-11.072
增加了	-11.0723
别人的	-11.0724
都是烂的	-11.0728
音响效果	-11.0729
充分	-11.073
夹	-11.0734
就想	-11.0737
事先	-11.0737
没法用	-11.0739
瑕疵	-11.074
很重要	-11.074
不提供	-11.0742
2.0	-11.0744
就是这个	-11.0744
农村	-11.0745
真差	-11.0747
联想的	-11.0752
好点	-11.0753
有很大的	-11.0753
有一	-11.0755
撞	-11.0756
很严重	-11.0756
就死机	-11.0757
类型	-11.0757
楼梯	-11.076
胖	-11.076
宁愿	-11.0762
偏高	-11.0762
才给	-11.0765
挺满意	-11.077
似	-11.077
买的是	-11.0771
二楼	-11.0772
元的价格	-11.0778
巨大	-11.0779
做生意	-11.078
的原因吧	-11.0781
寄过来	-11.0783
心得	-11.0784
点下单	-11.0786
要求换房	-11.0789
运动	-11.079
开业	-11.0791
同一	-11.0792
雷	-11.0793
申请售后	-11.0795
小苹果	-11.0795
表情	-11.0805
父亲	-11.0806
算下来	-11.0808
我住的房间	-11.0809
世纪	-11.081
亚	-11.0814
赚钱	-11.0816
620	-11.082
都不敢	-11.0821
京东的快递	-11.0821
我给	-11.0822
▁地点	-11.0822
剩下	-11.0822
年龄	-11.0822
扫	-11.0823
越来越差	-11.0823
如果说	-11.0824
到店	-11.0824
嘈杂	-11.0824
▁很失望	-11.0825
该机	-11.0827
到货后	-11.0828
幽静	-11.0828
也不怎么样	-11.0829
脑	-11.083
送的东西	-11.0831
想起	-11.0832
就更	-11.0836
▁速度很快	-11.0836
洋	-11.0837
好失望	-11.084
义	-11.0841
对得起	-11.0844
给一星	-11.0844
也还好	-11.0845
消	-11.0846
权	-11.0846
桶	-11.0847
▁感觉还不错	-11.0847
振动	-11.0849
就出现	-11.0849
上盖	-11.085
君	-11.0852
▁什么	-11.0854
进了	-11.0855
救	-11.0856
▁果子	-11.0856
住一晚	-11.0857
西餐	-11.0857
&#183;	-11.0858
210	-11.0859
mate	-11.0859
惨不忍睹	-11.0859
环保	-11.0859
酒店内	-11.0859
以次充好	-11.086
不错不错不错不错不错不错不错不错	-11.086
案例	-11.086
解读	-11.086
所以我统一用段话作为评价内容	-11.086
师	-11.086
不知道效果怎么样	-11.0862
咖啡厅	-11.0862
万像素摄像头	-11.0862
》、《	-11.0862
回味	-11.0863
价格也实惠	-11.0863
根本就是	-11.0863
浪	-11.0864
致	-11.0864
无窗	-11.0864
试着	-11.0864
转机	-11.0866
松动	-11.0867
才送到	-11.0868
全五星好评	-11.0869
看了下	-11.087
洗头水	-11.0874
临近	-11.0875
都不能	-11.0875
无限	-11.0875
看不出	-11.0878
市面上	-11.0878
纯棉	-11.0879
通过携程预定	-11.0881
这条	-11.0885
位置很好	-11.0885
还算满意	-11.0885
爱国	-11.0886
房间面积	-11.0887
▁入住	-11.0887
竟然说	-11.0889
信用	-11.089
到时	-11.0891
—	-11.0891
注重	-11.0891
后期	-11.0891
;4.	-11.0892
有许多	-11.0893
假日	-11.0894
外边	-11.0896
现在已经	-11.0897
正合适	-11.0897
还有一些	-11.0897
一点都	-11.0904
度假村	-11.0904
反应速度	-11.0905
实在太差	-11.0905
是免费的	-11.0906
;5、	-11.0909
比较划算	-11.0915
去看	-11.0916
▁好好好	-11.0916
没有想象的好	-11.092
入住此酒店	-11.0921
正如	-11.0921
媳妇	-11.0921
要看	-11.0921
发挥	-11.0921
又不是	-11.0922
的通病	-11.0923
西湖	-11.0924
下次还来买	-11.0925
在你	-11.0925
强烈建议	-11.0927
吵醒	-11.0928
口感很好	-11.093
去的时候	-11.0932
楼下的	-11.0933
▁挺好用的	-11.0936
指纹识别	-11.0937
不仅仅是	-11.0938
别买	-11.0939
绝对的	-11.0941
环境也不错	-11.0943
也挺好的	-11.0943
桌	-11.0943
很感谢	-11.0946
吃过	-11.0949
都挺好	-11.0949
58	-11.095
感觉非常好	-11.0951
没看	-11.0956
房间隔音	-11.096
形成	-11.0962
概念	-11.0964
点到	-11.0965
也很近	-11.0966
▁*	-11.0967
一样大	-11.0967
动画	-11.0967
积累了	-11.097
超薄	-11.0973
这牌子	-11.0977
什么情况	-11.0977
看着就	-11.0978
济南	-11.0979
截图	-11.0979
东西很好	-11.0979
▁买的时候	-11.0981
站在	-11.0981
问题是	-11.0981
充满电	-11.0982
非常给力	-11.0984
替	-11.0984
回来后	-11.0986
屏幕很清晰	-11.0988
不起	-11.0988
长了	-11.0989
超级棒	-11.0992
一分价钱一分货	-11.0992
暖和	-11.0993
指定	-11.0994
价格还可以	-11.0995
一个是	-11.0996
不见了	-11.0999
▁-	-11.0999
但在	-11.0999
这么便宜	-11.1
希望大家	-11.1004
但是感觉	-11.1005
的经验	-11.1005
又甜又脆	-11.1005
省心	-11.1008
新手机	-11.1012
价格很实惠	-11.1012
干什么	-11.1016
准时	-11.1021
此外	-11.1023
。。。。。。。。	-11.1026
特么	-11.1027
▁刚买就降价	-11.1027
▁只能说	-11.1033
味道很好闻	-11.1034
感兴趣	-11.1036
豪	-11.1037
全新的	-11.1039
过几天	-11.104
时就	-11.1041
要好很多	-11.1042
太低	-11.1043
550	-11.1043
牛逼	-11.1048
轻便	-11.1049
带的	-11.1051
家里的	-11.1052
而且还有	-11.1053
为我	-11.1055
的包装	-11.1055
这本书的	-11.1058
还没使用	-11.1062
携带	-11.1064
红色的	-11.1065
漂亮的	-11.1066
但是房间	-11.1067
也非常好	-11.1067
生活用品	-11.1071
三星级	-11.1073
人家说	-11.1077
不便宜	-11.1077
好象是	-11.1079
都已经	-11.108
!!!!!!!!	-11.1085
▁尺码	-11.1086
故障	-11.1086
有划痕	-11.1087
独	-11.1091
饭菜	-11.1092
要注意	-11.1092
专业的	-11.1094
共鸣	-11.1094
地上	-11.1095
在装修	-11.1096
麻	-11.1097
虽然我	-11.1098
基础	-11.1099
这个手机	-11.1099
速度太慢	-11.11
住了一晚	-11.1101
瞬间	-11.1105
的角度	-11.1105
以至于	-11.1112
包装完整	-11.1113
这是一本	-11.1114
用过之后	-11.1115
▁不喜欢	-11.1116
61	-11.1116
无法入睡	-11.1118
找个	-11.1119
顺畅	-11.1119
观察	-11.112
门票	-11.112
也很快	-11.1122
统一	-11.1124
▁很划算	-11.1125
差了	-11.1126
的心态	-11.1126
的本本	-11.1129
前一天	-11.1129
顺利	-11.113
优美	-11.1131
偏僻	-11.1132
早餐也不错	-11.1135
屏保	-11.1137
就像是	-11.1139
性格	-11.114
不清	-11.1142
池	-11.1144
▁收到货了	-11.1146
就降了	-11.1146
▁京东购物	-11.1146
垫	-11.1147
善	-11.1149
懒得换了	-11.115
我住	-11.1154
价格很便宜	-11.1159
买了好多	-11.116
▁可能是	-11.1162
还真是	-11.1163
切换	-11.1164
楼道	-11.1164
85	-11.1165
用了一次	-11.1165
好处	-11.1165
起头皮屑	-11.117
赖	-11.1171
可怜	-11.1171
了好久	-11.1174
到房间	-11.1175
停电	-11.1179
哪怕	-11.1179
皆	-11.1183
个电话	-11.1184
餐厅的	-11.1185
位置不错	-11.1186
平衡	-11.1186
一直到	-11.1186
少年	-11.1189
▁M	-11.1189
真的很差	-11.1193
特别好吃	-11.1195
丢失	-11.1197
参与	-11.1204
凑合	-11.1204
良	-11.1204
是我想要的	-11.1207
到最后	-11.1207
反思	-11.1208
台式机	-11.121
所以就	-11.1211
个火龙果	-11.1211
太阳	-11.1213
让人放心	-11.1215
互相	-11.1215
▁缺点	-11.1217
越来越好	-11.1218
接收	-11.1219
非常漂亮	-11.122
不足之处	-11.122
故意	-11.1221
拼音	-11.1222
果然是	-11.1224
罗	-11.1224
给自己	-11.1226
房间也不错	-11.1231
浏览器	-11.1233
卖了	-11.1235
挂牌	-11.1236
当然是	-11.1238
安装的	-11.1238
两个月	-11.1241
贴纸	-11.1241
▁我只想说	-11.1243
穿不了	-11.1244
抱	-11.1244
非常满意的一次购物	-11.1244
不吃	-11.1244
日入住的	-11.1245
温	-11.1246
傻逼	-11.1248
东哥	-11.1249
哲学	-11.125
唱	-11.125
厂商	-11.1251
被褥	-11.1252
我订的	-11.1252
流量	-11.1252
洗漱用品	-11.1252
非常不方便	-11.1254
空洞	-11.1254
▁完全	-11.1254
杂音	-11.1255
会更好	-11.1256
邮件	-11.1256
塔	-11.1257
超级小	-11.1258
桑拿	-11.1258
五个	-11.1259
sata	-11.1259
杜拉拉	-11.1259
直径	-11.126
这个配置	-11.126
批评	-11.126
APP	-11.126
主管	-11.126
果实	-11.1261
相当满意	-11.1262
做出	-11.1262
强制	-11.1263
胡兰成	-11.1264
申请换货	-11.1264
▁还没吃	-11.1264
必备	-11.1265
创新	-11.1265
一般吧	-11.1266
工厂	-11.1268
接下来	-11.1269
电池耐用	-11.1269
三个火龙果	-11.1269
职	-11.1271
下次不买了	-11.1272
很长时间	-11.1273
点滴	-11.1274
可谓	-11.1274
台灯	-11.1276
无线网	-11.1276
这两天	-11.1277
小家伙	-11.1278
改为	-11.1279
外加	-11.1281
有待改善	-11.1282
▁转发微博	-11.1283
读物	-11.1283
比较难	-11.1284
今天就到了	-11.1284
有什么问题	-11.1284
苹果很新鲜	-11.1289
有杂音	-11.1289
听着	-11.129
生硬	-11.129
码头	-11.1293
老人家	-11.1294
同步	-11.1294
一番	-11.1297
下订单	-11.1301
比较新鲜	-11.1302
很冷	-11.1303
不太喜欢	-11.1303
递	-11.1307
很酷	-11.1307
读这本书	-11.1308
难过	-11.1309
家用	-11.1309
烦恼	-11.131
不能再	-11.131
更为	-11.1311
的知识	-11.1312
小灵通	-11.1314
隔音差	-11.1315
比较贵	-11.1317
)、	-11.1319
播放器	-11.1319
就是在	-11.1321
▁服务很好	-11.1321
很不	-11.1322
应该有	-11.1324
电商	-11.1328
服务很周到	-11.1328
质量很差	-11.133
整本书	-11.1333
联系我	-11.1334
最差的一次购物	-11.1334
～～～～	-11.1334
刀	-11.1335
可用	-11.1337
送货的	-11.1337
下单后	-11.1339
有型	-11.1341
大小不一	-11.1345
有味道	-11.1348
不得	-11.135
这次入住	-11.1351
买了两套	-11.1354
不知是否	-11.1355
山庄	-11.1356
杯	-11.1358
去香港	-11.1358
想吃	-11.1362
退出	-11.1363
要自己	-11.1364
领班	-11.1364
没有用	-11.1364
不会有	-11.1366
单间	-11.1367
老爸	-11.1372
这个洗发水	-11.1372
想不到	-11.1377
到货了	-11.138
很人性化	-11.1382
加强	-11.1383
级别	-11.1384
典型的	-11.1386
屏幕显示	-11.1387
▁这次的苹果	-11.1388
龙头	-11.1389
▁总体	-11.139
讲究	-11.1391
撑	-11.1392
350	-11.1394
我才	-11.1397
虽然没有	-11.14
有点酸	-11.1401
在上面	-11.1401
豪华标间	-11.1402
退房的时候	-11.1402
。6.	-11.1404
早上起来	-11.1408
换到	-11.1412
耽误了	-11.1412
240	-11.1413
▁太差劲了	-11.1414
掉发	-11.1414
最低	-11.1417
▁一直用清扬	-11.1421
没关系	-11.1428
说有	-11.1428
输	-11.1429
长沙	-11.1431
全身	-11.1432
左边	-11.1433
华丽	-11.1433
色的	-11.1434
从来没	-11.1436
特价房	-11.1437
Check	-11.1438
外观时尚	-11.144
恩	-11.1441
款式好看	-11.1443
穿着舒适	-11.1445
▁分辨率	-11.1446
较少	-11.1446
大小正合适	-11.1449
培养	-11.1449
的多	-11.1449
太难吃了	-11.145
残	-11.1452
一把	-11.1452
惠普	-11.1454
▁我住的是	-11.1456
价格优惠	-11.1464
去超市买	-11.1465
还没收到	-11.1465
包装的很好	-11.1465
呵	-11.1467
中途	-11.1468
基本没	-11.1468
服务很到位	-11.1468
就是个	-11.1469
有这样的	-11.1469
下手	-11.147
极度	-11.147
只适合	-11.1472
觉得不错	-11.1474
在京东购买	-11.1474
还没有使用	-11.1476
猛	-11.1481
的特点	-11.1482
▁本本	-11.1483
▁新鲜	-11.1488
感觉好	-11.1488
怎么吃	-11.1488
酒店服务	-11.1489
这么大的	-11.1492
差一点	-11.1492
透气	-11.1493
整个酒店	-11.1493
超市买的	-11.1493
三件	-11.1493
泡泡	-11.1494
美丽的	-11.1496
一直都在用	-11.1496
已经被	-11.1498
那么差	-11.1499
我不	-11.15
▁显卡	-11.15
差太多了	-11.1502
肯定会	-11.1506
悲哀	-11.1507
还不是	-11.1508
开机后	-11.1511
看了看	-11.1511
一篇	-11.1512
一支	-11.1513
穿着也	-11.1517
店里	-11.1518
巧	-11.1518
键盘手感	-11.1521
意识	-11.1522
睡不着	-11.1523
塞	-11.1524
▁看着	-11.1527
对客人	-11.1528
▁速度	-11.1528
心灵	-11.153
懒	-11.1531
鸡肋	-11.1535
五分好评	-11.1536
一辈子	-11.154
!)	-11.1542
自信	-11.1545
▁一般吧	-11.1546
抱着	-11.1551
屏幕很大	-11.1551
175	-11.1557
个头大	-11.1558
单子	-11.1559
很完美	-11.1559
不会再	-11.156
有多	-11.1561
我真	-11.1564
在中国	-11.1564
一口气	-11.1564
供应商	-11.1566
粘毛	-11.1566
生姜的	-11.1567
都不好	-11.1567
微博	-11.1567
现在又	-11.1567
下次继续	-11.1571
▁京东快递	-11.1572
臭味	-11.1574
左侧	-11.158
名牌	-11.1582
还是挺	-11.1587
银色	-11.1587
遇上	-11.1589
尚	-11.1595
速度挺快	-11.1599
不一定	-11.16
谨慎	-11.1604
快递速度	-11.1606
▁这个价位	-11.1606
挺好看的	-11.1607
添	-11.161
▁速度快	-11.1614
回来了	-11.1616
最重要的	-11.1617
▁发货速度快	-11.1617
超快	-11.1618
大陆	-11.1618
最后一次	-11.1618
偷	-11.162
自营的	-11.1622
协议	-11.1627
我只好	-11.1627
我们住的	-11.1627
切糕	-11.1628
很多时候	-11.1628
不相信	-11.1629
酒店在	-11.1629
经常死机	-11.1631
春	-11.1633
湖景房	-11.1634
蒙牛牛奶	-11.1634
早餐是	-11.1635
再就是	-11.1642
第一次遇到	-11.1643
的饭店	-11.1643
手上	-11.1645
骚扰	-11.1646
施华蔻	-11.1647
电池也	-11.1647
加热	-11.1647
联系了	-11.1648
镜	-11.1649
昨天下午	-11.165
麦克风	-11.1651
总体上	-11.1652
送货及时	-11.1652
戏	-11.1653
▁三个	-11.1656
入睡	-11.1657
其实是	-11.1659
列	-11.1659
走道	-11.1661
不久	-11.1661
屁股	-11.1662
到处是	-11.1663
用过后	-11.1663
上门	-11.1663
这时	-11.1664
吐槽	-11.1664
试用装	-11.1668
享用	-11.1669
兰	-11.167
斗	-11.1672
拥挤	-11.1672
续航能力	-11.1672
装潢	-11.1673
差强人意	-11.1673
断线	-11.1673
奥	-11.1674
720	-11.1674
近期	-11.1674
笨	-11.1674
职业	-11.1674
出乎意料	-11.1676
麒麟	-11.1676
包装非常仔细	-11.1676
ghost	-11.1676
一应俱全	-11.1677
怪不得	-11.1677
女主角	-11.1677
[	-11.1677
强烈不推荐	-11.1677
手写笔	-11.1678
打开看	-11.1681
LP	-11.1682
极好	-11.1683
SL	-11.1684
味道好闻	-11.1684
退色	-11.1684
第一次在京东买水果	-11.1684
离市中心	-11.1685
唯一不足的是	-11.1687
藏	-11.1688
无烟房	-11.1689
▁沙宣	-11.169
.4.	-11.1692
J	-11.1693
来不及	-11.1694
稳重	-11.1696
不热	-11.1697
真恶心	-11.1699
外套	-11.1702
9.5	-11.1704
需要改进	-11.1706
虫	-11.1707
大牌	-11.1707
不影响使用	-11.1708
你值得拥有	-11.1708
没到	-11.1709
相反	-11.171
太差劲	-11.171
同类	-11.1711
也一般	-11.1713
烟台	-11.1714
的不一样	-11.1715
两家	-11.1715
居住	-11.1715
▁牛仔裤	-11.1717
有点重	-11.172
很到位	-11.1723
一副	-11.1724
回房间	-11.1725
金额	-11.1725
第二天一早	-11.1725
30%	-11.1726
好长时间	-11.1727
水温	-11.1727
和前台	-11.1728
结实	-11.1728
拍下	-11.1729
额	-11.1729
用手机	-11.1731
共同	-11.1732
和他	-11.1732
的标准	-11.1734
制度	-11.1734
挺好用	-11.1736
流行	-11.1737
没法吃	-11.1737
▁房间不错	-11.1737
还过得去	-11.1738
豆	-11.1739
如果能	-11.1741
电子发票	-11.1742
早餐还可以	-11.1743
▁感觉是假的	-11.1744
了下	-11.1745
这质量	-11.1747
侧面	-11.1748
▁1:	-11.1749
装个	-11.175
是什么意思	-11.175
比超市便宜很多	-11.1753
的结局	-11.1758
从来	-11.1761
但是对于	-11.1762
▁这是一本	-11.1762
能把	-11.1763
京东的客服	-11.1767
一声	-11.1767
口感一般	-11.1767
▁包装不错	-11.1769
好久了	-11.1772
▁平板电脑	-11.1773
玩具	-11.1774
有特色	-11.1775
开着	-11.1775
油油的	-11.1777
早晚	-11.1779
的飞机	-11.1779
不知为什么	-11.1782
形容	-11.1782
正对	-11.1782
就这样了	-11.1784
哈哈哈哈	-11.1789
走的时候	-11.1795
太长了	-11.1798
这家酒店的	-11.1799
▁热水器	-11.18
送餐	-11.1801
希望下次	-11.1803
亏了	-11.1804
就这样吧	-11.1804
还是蛮	-11.1807
把握	-11.1808
试一下	-11.181
前面的	-11.1813
▁抵制蒙牛	-11.1814
打开了	-11.1814
这个地方	-11.1815
事实上	-11.1816
动不动就	-11.1816
恋	-11.1818
夸张	-11.1819
心态	-11.182
不是很甜	-11.1822
个晚上	-11.1822
底下	-11.1823
路口	-11.1824
经营	-11.1824
非常干净	-11.1825
下次还会来的	-11.1827
屏幕显示效果	-11.1828
36	-11.1829
的选择	-11.1829
难找	-11.1831
挺喜欢	-11.1831
▁为了	-11.1832
用料	-11.1832
人士	-11.1832
付了	-11.1834
高级房	-11.1834
可以使用	-11.1837
不平	-11.1837
淋浴间	-11.1837
等于	-11.1845
平凡	-11.1847
怎么可能	-11.185
一楼的	-11.1851
续	-11.1851
非常一般	-11.1851
万豪	-11.1852
▁开机	-11.1853
岁了	-11.1855
也很差	-11.1855
怪味	-11.1855
▁京东的	-11.1855
敏感	-11.1856
配上	-11.1858
甚	-11.186
孩子很喜欢	-11.1861
十八	-11.1862
▁第二次	-11.1864
体贴	-11.1866
▁希望	-11.1867
▁LED	-11.1867
质量不行	-11.1869
下次还会再来的	-11.1871
宾客	-11.1871
呼	-11.1872
负	-11.1874
床很大	-11.1876
大小刚刚好	-11.1878
反应迟钝	-11.1878
小到	-11.1884
的生日礼物	-11.1885
太重	-11.1886
想说	-11.1887
▁小	-11.1888
也没人	-11.1888
的铃声	-11.1888
的水平	-11.1889
【	-11.189
当作	-11.189
▁【	-11.1893
应该会	-11.1893
不是特别	-11.1895
图案	-11.1896
打到	-11.1896
屏幕够大	-11.1897
▁颜色不错	-11.1898
也得	-11.1899
先说	-11.19
▁6.	-11.19
还敢	-11.19
的头发	-11.1901
GB	-11.1902
和一个	-11.1903
情绪	-11.1905
吸引人	-11.1906
质量挺好的	-11.1909
也很多	-11.191
的价钱	-11.1912
▁质量很差	-11.1915
大量	-11.1916
下降	-11.1916
隔音很差	-11.1917
只有两个	-11.1917
冷藏	-11.1918
开发	-11.1919
热爱	-11.192
用上	-11.1922
不喝	-11.1922
去屑	-11.1924
每晚	-11.1926
的日子	-11.193
场景	-11.1932
南京	-11.1933
差多了	-11.1933
给我发	-11.1935
屁	-11.1935
04	-11.1937
于丹	-11.1938
也很大	-11.194
拔	-11.194
门口的	-11.1941
遥控器	-11.1941
很顺利	-11.1945
漏液	-11.1946
丝	-11.1946
京东上	-11.1946
新颖	-11.1948
▁很实惠	-11.1948
1.8	-11.1948
没有异味	-11.195
签	-11.1951
一个大	-11.1954
很郁闷	-11.1956
还会再买	-11.1957
均匀	-11.1957
差了点	-11.1959
很稀	-11.1959
问候	-11.1961
布置	-11.1962
酷	-11.1963
窗子	-11.1964
还带	-11.1966
买一个	-11.1967
卖相	-11.1968
窄	-11.1969
都差不多	-11.1972
计	-11.1972
混乱	-11.1973
送来了	-11.1973
妹	-11.1974
引起	-11.1975
放下	-11.1976
没得	-11.1979
酒店里	-11.1979
申请价格保护	-11.1979
有差距	-11.198
区域	-11.198
很有型	-11.1981
异常	-11.1984
上图	-11.1984
有点问题	-11.1987
逗	-11.1988
热的	-11.1991
宽带上网	-11.1993
建议买	-11.1994
小区	-11.1996
▁一分钱一分货	-11.1996
犯	-11.2
没有收到	-11.2001
不能退	-11.2002
到达酒店	-11.2005
买了很多	-11.2005
即便	-11.2005
黑心	-11.2005
像个	-11.2006
没那么	-11.2009
打电话给	-11.2009
有意思	-11.2011
岛	-11.2012
去做	-11.2013
以后会	-11.2015
吊牌	-11.2017
卫生条件	-11.2017
仓库	-11.2017
袋子	-11.2018
▁穿上	-11.2019
没有电梯	-11.202
把自己	-11.2021
早上下单	-11.2021
就不会	-11.2022
刮	-11.2022
饱满	-11.2022
餐馆	-11.2024
住酒店	-11.2025
元的房间	-11.2025
▁垃圾货	-11.2026
一旦	-11.2026
越来越多	-11.2027
信号不好	-11.2027
不承认	-11.2028
香港的	-11.2029
一百	-11.2029
耍	-11.2032
▁明明	-11.2033
的介绍	-11.2035
昨晚下单	-11.2035
战	-11.2039
神奇	-11.2039
▁款式	-11.2041
分钟后	-11.2041
贴心	-11.2042
还蛮	-11.2044
谢	-11.2045
洗澡时	-11.2046
这台	-11.2046
前台的服务	-11.2047
蛮好	-11.2051
感应	-11.2054
自行	-11.2055
早已	-11.2055
房间比较干净	-11.2058
晚上下单	-11.206
”(	-11.2062
群	-11.2062
赞一下	-11.2063
屋里	-11.2063
买买买	-11.2065
这个店	-11.2067
免费升级	-11.2068
▁不是正品	-11.2068
▁搞活动买的	-11.2069
95	-11.207
较高	-11.2071
进一步	-11.2072
的洗发露	-11.2072
噪声	-11.2073
后来我	-11.2074
给人一种	-11.2075
词汇	-11.2075
离市区	-11.2076
重要的	-11.2076
洗不干净	-11.2076
一看就是	-11.2077
素	-11.2077
刺激	-11.2078
少了点	-11.2084
贴上	-11.2084
村	-11.2085
盛	-11.2088
一如既往的	-11.2091
酸甜可口	-11.2091
优雅	-11.2093
杂志	-11.2093
港币	-11.2093
队	-11.2094
单调	-11.2094
有明显的	-11.2095
大众	-11.2095
流畅度	-11.2096
康	-11.2096
州	-11.2096
播	-11.2096
斑	-11.2097
棉	-11.2097
也只能	-11.2097
这招	-11.2097
和谐	-11.2098
文明	-11.2099
烧烤	-11.2099
出手	-11.21
智能	-11.2101
挺失望的	-11.2101
银子	-11.2101
生姜	-11.2101
后又	-11.2104
很丰富	-11.2104
荐书	-11.2104
悲	-11.2104
暴	-11.2105
核实	-11.2105
柳州	-11.2106
不可思议	-11.2107
摸起来很舒服	-11.2108
杨	-11.2109
瞎搞	-11.211
排版	-11.211
骄傲	-11.211
相互	-11.211
商量	-11.211
牛根生	-11.2111
HDMI	-11.2111
bios	-11.2111
介绍了	-11.2112
hp	-11.2112
颜色也很正	-11.2112
绿化	-11.2112
着实	-11.2113
”“	-11.2114
假期	-11.2114
298	-11.2117
自身	-11.2118
7.0	-11.2118
在京东上买	-11.2121
全扔了	-11.2121
▁真的是	-11.2122
基本没有	-11.2128
竟然还	-11.2128
告诉大家	-11.2128
红心火龙果	-11.213
不大不小	-11.2131
太麻烦了	-11.2131
▁房间小	-11.2132
应付	-11.2132
经历了	-11.2133
最少	-11.2134
很难吃	-11.2136
请大家	-11.2136
贴了	-11.2136
这么贵	-11.2137
真是不错	-11.2138
这次买	-11.2139
上传	-11.2139
960	-11.2139
用了一天	-11.2141
通话时	-11.2143
▁店家	-11.2144
洗衣服	-11.215
主角	-11.2151
才买	-11.2152
相对来说	-11.2154
以后不会再买了	-11.2156
发错	-11.2157
真快	-11.2158
强调	-11.216
山西	-11.2164
控油	-11.2165
▁性能	-11.2166
打招呼	-11.2167
书上	-11.217
欺诈	-11.2173
邮寄	-11.2176
发表	-11.2178
欠	-11.218
儿子很喜欢	-11.218
▁洗完	-11.2184
生产的	-11.2186
是以	-11.2187
一直用清扬	-11.2188
几年	-11.219
在携程	-11.2192
不值这个价格	-11.2192
都不用	-11.2193
之下	-11.2194
套子	-11.2195
气死了	-11.2199
进口的	-11.2199
镜面	-11.2201
的确不错	-11.2201
喝的	-11.2201
升级了	-11.2204
也就是说	-11.2206
我爸	-11.2209
我以前	-11.221
是这样	-11.2212
一个月了	-11.2213
搞了	-11.2214
就没了	-11.2216
¥	-11.2216
▁实物	-11.2217
礼宾部	-11.2221
驱动光盘	-11.2222
给儿子	-11.2224
因为有	-11.2224
新包装	-11.2228
这样的价格	-11.2233
可以当	-11.2236
▁感觉不错	-11.2236
质量也好	-11.2239
▁宝贝很好	-11.2241
加床	-11.2244
简易	-11.2244
裂	-11.2247
烤	-11.2248
也没有什么	-11.225
的部分	-11.2251
一分钟	-11.2253
地震	-11.2256
也不算	-11.2261
▁怎么说呢	-11.2264
做工差	-11.2265
一项	-11.2265
逃	-11.2269
不知道怎么回事	-11.2274
山上	-11.2279
▁垃圾东西	-11.2279
第一部	-11.2279
▁支持国产	-11.2281
节目	-11.2283
这个牌子的	-11.2283
不看	-11.2288
智慧	-11.2288
还有一点	-11.2291
协程	-11.2293
很足	-11.2294
不影响	-11.2295
也太	-11.2297
的一家酒店	-11.2297
京东买的	-11.2299
贵宾楼	-11.23
拿下	-11.2301
红富士	-11.2302
丽	-11.2303
遇到了	-11.2307
▁设施陈旧	-11.2307
低价	-11.2311
两大瓶	-11.2312
不太一样	-11.2314
手段	-11.2316
▁不知道是	-11.2317
显然	-11.2319
由于是	-11.2322
物流太慢	-11.2324
缝隙	-11.2325
蒙牛优益	-11.2326
超划算	-11.2329
非得	-11.2332
什么也没有	-11.2334
▁开始	-11.234
已经很	-11.2341
送人的	-11.2341
幸福的	-11.2342
▁很新鲜	-11.2342
▁很甜	-11.2343
母	-11.2343
就知道了	-11.2344
我已	-11.2344
我刚	-11.2345
当天就	-11.2347
对孩子	-11.2347
发货速度很快	-11.2351
有免费	-11.2352
涨价了	-11.2354
5、	-11.2355
的那	-11.2355
书的质量	-11.2356
剩	-11.2359
短信息	-11.2359
省事	-11.236
半价	-11.236
上身	-11.236
是正常的	-11.2361
下次还会入住	-11.2361
我们家	-11.2362
。8、	-11.2362
安卓平板	-11.2364
饿	-11.2365
没必要	-11.2367
搞错	-11.2369
错过	-11.237
你自己	-11.237
房间有	-11.2373
都很喜欢	-11.2377
感慨	-11.2377
一直用沙宣	-11.2378
▁位置不错	-11.2379
▁Vista	-11.2382
比较甜	-11.2383
看后	-11.2383
财务	-11.2384
坑人的	-11.2384
标注	-11.2385
纸盒	-11.2387
我只能说	-11.2387
还想	-11.2388
耽误	-11.2389
来到	-11.239
尖	-11.2392
评价的	-11.2395
苹果了	-11.2397
▁酒店的	-11.2398
物流慢	-11.24
太快了	-11.2402
但是没有	-11.2404
基本上都	-11.2406
于是我	-11.2407
`	-11.241
的观点	-11.2412
要买的	-11.2418
发烫	-11.2419
最好的酒店	-11.2419
超越	-11.2419
爆	-11.242
有事	-11.2421
发现有	-11.2421
会觉得	-11.2421
5.1	-11.2422
也很喜欢	-11.2423
98	-11.2423
界	-11.2424
窗口	-11.2425
也不一样	-11.2427
▁不知道为什么	-11.2427
书本	-11.2427
很牛	-11.2428
▁物流慢	-11.243
弯	-11.2431
帐	-11.2432
270	-11.2433
误导	-11.2433
这速度	-11.2434
非常流畅	-11.2438
后来发现	-11.244
下单时	-11.2445
太过分了	-11.2446
去油	-11.2447
的过程	-11.2454
扔掉	-11.2456
裤腿	-11.2456
此机	-11.2459
就给	-11.246
将来	-11.246
不专业	-11.2463
没有打蜡	-11.2466
后来又	-11.247
再来评价	-11.247
对其	-11.2471
小问题	-11.2471
显瘦	-11.2472
酒店门口	-11.2473
悲伤	-11.2476
摊	-11.2477
有三个	-11.2479
莫泰	-11.248
一颗星	-11.248
不太好用	-11.2481
事物	-11.2481
便宜的	-11.2481
▁质量很不错	-11.2483
维	-11.2484
碍	-11.2486
那位	-11.2487
密	-11.2488
定的是	-11.2488
一点儿	-11.2491
谈不上	-11.2492
艳丽	-11.2493
第一次在京东买东西	-11.2494
我很	-11.2498
拿到货	-11.2501
可能是我	-11.2503
几家	-11.2503
一股霉味	-11.2504
文中	-11.2504
超慢	-11.2504
Q	-11.2505
男生	-11.2505
在外	-11.2506
不知是不是	-11.2509
这类	-11.251
不愉快	-11.2513
可以了	-11.2516
夏天穿	-11.2518
就算是	-11.2519
▁快递员	-11.252
卫	-11.252
确实很好	-11.2521
真实的	-11.2522
发痒	-11.2523
菜品	-11.2523
骨	-11.2526
规则	-11.2527
锅	-11.2528
基	-11.2528
怀念	-11.253
中粮	-11.2531
单纯	-11.2533
穿越	-11.2533
乐观	-11.2534
一口	-11.2534
每一	-11.2535
碗	-11.2535
的人生	-11.2535
永	-11.2536
这句话	-11.2539
怀	-11.2539
碟	-11.2541
]	-11.2541
分组	-11.2542
普	-11.2545
上身效果	-11.2545
每年	-11.2545
人民	-11.2546
这东西	-11.2547
装修的	-11.2548
给人的感觉	-11.2548
韩	-11.2549
糖	-11.2549
酒店没有	-11.2549
给个好评	-11.2553
加入	-11.2553
截	-11.2554
护	-11.2554
看不懂	-11.2554
恼火	-11.2555
宁	-11.2555
夜景	-11.2555
痕	-11.2557
造成的	-11.2557
圣	-11.2559
姓	-11.256
庆	-11.2561
附近有	-11.2561
睡得	-11.2561
之余	-11.2562
号领不到	-11.2562
东方	-11.2562
另外就是	-11.2563
损了	-11.2563
请问东哥知	-11.2563
果汁	-11.2563
性价比还可以	-11.2563
我靠	-11.2563
心塞	-11.2564
厨师	-11.2564
推脱	-11.2564
耳朵	-11.2564
质检	-11.2564
脏兮兮的	-11.2564
飘柔	-11.2564
孤独	-11.2565
quo	-11.2566
ω	-11.2566
▁物流超快	-11.2566
略微	-11.2566
四周	-11.2566
显示器	-11.2567
LCD	-11.2567
完全超出	-11.2567
100%	-11.2567
照顾	-11.2567
纯属	-11.2567
拨号	-11.2569
行业	-11.2571
后悔死了	-11.2571
还凑合	-11.2572
那叫一个	-11.2573
顺手	-11.2573
爱玲	-11.2574
沈阳	-11.2574
作文	-11.2575
清扬洗发水	-11.2576
闻到	-11.2577
帮我们	-11.2577
整个房间	-11.2577
线条	-11.2584
举	-11.2586
机场大巴	-11.2586
价格也便宜	-11.2588
物流挺快的	-11.2588
原先	-11.2588
好玩	-11.2589
真的很失望	-11.2589
改正	-11.259
此事	-11.2591
你们京东	-11.2592
也不是很好	-11.2592
KG	-11.2592
昨天晚上	-11.2593
看图吧	-11.2593
的蒙牛	-11.2594
强劲	-11.2596
有很大	-11.2597
序	-11.2597
去掉	-11.2597
客房部	-11.2599
复制	-11.26
临街	-11.26
军	-11.2601
十分满意	-11.2602
这事	-11.2603
▁穿着	-11.2603
服务也很到位	-11.2603
路过	-11.2604
古城	-11.2605
折扣	-11.2607
品牌的	-11.261
面料也不错	-11.2611
脸上	-11.2611
我希望	-11.2612
酸酸甜甜的	-11.2613
大牌子	-11.2614
携程上	-11.2616
自己去	-11.2616
随后	-11.2616
还不让	-11.2616
什么是	-11.2616
有可能	-11.2616
东楼	-11.2618
还能接受	-11.2619
两层	-11.2621
都不到	-11.2621
期待效果	-11.2622
货到	-11.2622
打电话问	-11.2623
有效	-11.2623
装驱动	-11.2623
的券	-11.2624
屋	-11.2627
这个世界	-11.2627
▁不甜	-11.2628
太一般了	-11.2629
▁骗子	-11.2629
▁又	-11.2632
吃了两个	-11.2632
▁宝贝质量不错	-11.2633
不玩游戏	-11.2633
几块钱	-11.2634
小学	-11.2634
同款	-11.2634
这下	-11.2635
使用的	-11.2635
酒店的设施	-11.2637
▁很不错的酒店	-11.264
都很满意	-11.264
住店客人	-11.2643
z	-11.2645
侧	-11.2646
看的时候	-11.2646
找售后	-11.2647
房间够大	-11.2648
▁交通方便	-11.265
看不下去	-11.2651
资	-11.2652
▁比超市便宜	-11.2655
答	-11.2656
配了	-11.2662
稍稍	-11.2663
朗读	-11.2663
不灵敏	-11.2666
绒	-11.2666
对面的	-11.2667
有时候会	-11.267
就是不一样	-11.2672
试过	-11.2673
市场上	-11.2674
不买蒙牛	-11.2675
只想	-11.2675
总会	-11.2677
浪费钱	-11.2678
1200	-11.2678
实用性	-11.2679
胶带	-11.268
同时也	-11.2683
觉得自己	-11.2684
没信号	-11.2687
大大	-11.2692
逼	-11.2693
尺码合适	-11.2694
07	-11.2694
两小时	-11.2696
性的	-11.2696
从中	-11.2699
漏出来了	-11.2699
京东服务	-11.2703
晚饭	-11.2705
差评差评差评	-11.2706
老家	-11.2706
▁很棒	-11.2706
传统	-11.2707
较远	-11.2713
黑的	-11.2714
酒店方	-11.2714
语气	-11.2714
来电铃声	-11.2715
第一次在京东买	-11.2715
的工作	-11.2715
做工也不错	-11.2716
比较简单	-11.2716
下午就收到了	-11.2718
拿到书	-11.2719
依	-11.2722
不想多说	-11.2722
标准房	-11.2723
我女儿	-11.2728
洗衣	-11.2728
49	-11.2728
弄了	-11.2733
薄的	-11.2733
5000	-11.2738
怎么也	-11.2738
很粗糙	-11.2739
车上	-11.274
就没有了	-11.274
有时间	-11.2741
液晶电视	-11.2741
还有头皮屑	-11.2744
的服务态度	-11.2744
竟然有	-11.2745
订购	-11.2745
有一定的	-11.2747
洗衣机	-11.2747
足足	-11.2748
绝对不	-11.275
这一本	-11.2751
对话	-11.2753
太方便了	-11.2753
▁声音	-11.2754
比较快	-11.2758
拍了	-11.2759
孩子们	-11.276
▁不行	-11.2762
所以说	-11.2763
失误	-11.2764
即将	-11.2764
送人了	-11.2765
有点后悔	-11.2765
亮丽	-11.2766
点就	-11.2767
不能换	-11.2768
我只能	-11.2774
服务到位	-11.2774
巨大的	-11.2776
号的	-11.2779
四星的标准	-11.2779
核心	-11.2784
连着	-11.2789
学会	-11.279
▁用过	-11.2793
达到了	-11.2794
▁什么玩意	-11.2794
高层	-11.2794
的要命	-11.2795
去过	-11.2796
看来是	-11.2796
火车	-11.2798
形状	-11.2801
下次还会来	-11.2802
渣渣	-11.2805
条短信	-11.281
快递也快	-11.2811
MOTO	-11.2811
价格还	-11.2812
一代	-11.2815
打车去	-11.2815
优秀的	-11.2815
+1	-11.2817
▁外观时尚	-11.2818
ctrip	-11.2818
听了	-11.282
说一下	-11.282
还给我	-11.2821
不咋的	-11.2821
所以这次	-11.2823
启发	-11.2825
配的	-11.2825
安装了	-11.2826
方便携带	-11.2827
330	-11.2829
发生了	-11.283
遇到的	-11.2834
堂	-11.2836
凭什么	-11.2837
都不要	-11.2837
网上买	-11.2838
火锅	-11.2839
尽然	-11.284
写作	-11.2842
不快	-11.2844
连锁酒店	-11.2844
一阵	-11.2845
▁东西收到	-11.2855
这是什么	-11.2855
▁料子	-11.2855
没法比	-11.2858
有点热	-11.2858
▁包装精美	-11.2859
不隔音	-11.2859
靓	-11.2862
黄色	-11.2868
更适合	-11.287
后才	-11.287
均衡	-11.2872
▁快递很快	-11.2872
楼的房间	-11.2873
很后悔	-11.2873
工具	-11.2874
这就	-11.2874
服务热情	-11.2876
味儿	-11.2877
也多	-11.2878
最基本的	-11.288
的过程中	-11.288
走过	-11.2889
的屏	-11.2889
叫人	-11.289
相应的	-11.2893
房间宽敞	-11.2895
还挺好的	-11.2895
断了	-11.2897
鲜艳	-11.2898
平淡	-11.2901
题目	-11.2901
教训	-11.2902
基本都是	-11.2905
这包装	-11.2905
5.0	-11.2907
老年人	-11.2907
声卡	-11.2908
乎	-11.2909
出油	-11.291
多久	-11.2912
离机场	-11.2912
匆忙	-11.2912
馆	-11.2915
还好吧	-11.2915
送朋友	-11.2917
翻了	-11.2918
性价比很好	-11.2919
挑剔	-11.2919
理性	-11.2921
看我	-11.2922
几个月	-11.2924
发热量	-11.2924
姐	-11.2926
独特	-11.2926
不禁	-11.2932
你好	-11.2933
超差	-11.2934
这样做	-11.2941
诱惑	-11.2941
处处	-11.2941
末	-11.2943
时期	-11.2944
做个	-11.2945
进去了	-11.2948
调换	-11.2951
是用	-11.2951
跌	-11.2952
住着	-11.2955
多少钱	-11.2956
兴奋	-11.2957
开发区	-11.2957
耳	-11.2957
很有意思	-11.2958
全程	-11.296
买得	-11.2961
▁洗完头发	-11.2962
▁总之	-11.2962
准确	-11.2962
湖景	-11.2962
的描写	-11.2963
就一	-11.2963
掏	-11.2963
淘	-11.2965
没开	-11.2967
走人	-11.2968
199	-11.297
省电	-11.297
拍照功能	-11.2971
容	-11.2971
势	-11.2973
特别多	-11.2973
京东售后	-11.2975
测	-11.2976
款式也	-11.2977
镜子	-11.2978
栋	-11.2978
胜	-11.2978
可言	-11.2981
好快	-11.2981
价格太高	-11.2982
长途	-11.2982
个子	-11.2984
还不到	-11.2984
在这买	-11.2985
也觉得	-11.2985
大小也	-11.2987
还是不行	-11.2993
▁很不好	-11.2993
不至于	-11.2997
画面清晰	-11.2997
走向	-11.2998
力度	-11.3002
消毒	-11.3002
实在太	-11.3002
野	-11.3002
▁打开包装	-11.3002
▁一直用沙宣	-11.3002
保暖	-11.3002
质量也不好	-11.3003
可以的	-11.3003
过来的	-11.3006
什么叫	-11.3007
很油	-11.3009
占了	-11.301
乘坐	-11.301
足以	-11.3012
锦江	-11.3012
不诚信	-11.3013
吃饭的地方	-11.3015
与其	-11.3016
我们都	-11.3017
椅子	-11.3017
取货	-11.3019
抵	-11.3019
珍惜	-11.3021
这款机器	-11.3023
服务员的态度	-11.3026
费力	-11.3028
严谨	-11.3028
一群	-11.3028
叶	-11.3029
章节	-11.303
纸巾	-11.303
填	-11.3031
屎	-11.3031
教授	-11.3032
▁妈的	-11.3033
看不见	-11.3034
渴望	-11.3034
大海	-11.3034
出口	-11.3034
报告	-11.3035
有瑕疵	-11.3035
完全可以	-11.3036
兜	-11.3036
须	-11.3037
刻录	-11.3037
收音机	-11.3037
练习	-11.3038
志	-11.3038
馒头	-11.3038
梨	-11.3038
感觉不是很好	-11.3039
矮	-11.3039
营销	-11.3039
自己也	-11.3039
就不知道	-11.304
防止	-11.304
值得一读	-11.304
逐渐	-11.3041
全五分	-11.3041
拜托	-11.3042
太可怕了	-11.3042
乏味	-11.3042
住那里	-11.3043
头疼	-11.3043
SONY	-11.3043
催单	-11.3044
打结	-11.3044
感觉像	-11.3045
整改	-11.3045
什么意思	-11.3045
旗舰店	-11.3045
”、“	-11.3045
值得一住	-11.3046
感觉很不好	-11.3046
代替	-11.3048
如图	-11.3048
总体而言	-11.3048
下方	-11.3049
洗完澡	-11.305
不断的	-11.305
磨损	-11.3052
买的东西	-11.3053
节能	-11.3053
靓丽	-11.3053
不一致	-11.3054
平静	-11.3055
超级慢	-11.3056
一贯	-11.3057
逼真	-11.3058
▁不错哦	-11.3059
什么破	-11.306
您的	-11.3061
水分多	-11.3061
▁一星都不想给	-11.3065
都不是	-11.3066
真相	-11.3066
开关机	-11.3067
京东发展	-11.3069
要求退货	-11.3072
当地的	-11.3073
和我一样	-11.3073
下次不会再买了	-11.3077
钱包	-11.3077
▁去年	-11.3078
不下	-11.3079
借鉴	-11.3081
有点脏	-11.3082
吸	-11.3082
怎么说	-11.3084
索爱	-11.3085
手动	-11.3088
翻翻	-11.309
遭遇	-11.3091
很厚	-11.3091
打电话给前台	-11.3092
挂了	-11.3095
具备	-11.3095
气派	-11.3097
▁酒店服务	-11.31
而且酒店	-11.3101
与酒店	-11.3102
就是不知道	-11.3102
的员工	-11.3102
更有	-11.3102
这个酒店的	-11.3104
值得入手	-11.3104
答曰	-11.3105
质量特别好	-11.3107
只能是	-11.3107
无数	-11.3109
偏偏	-11.3109
宽松	-11.311
今天就	-11.3113
严	-11.3113
用它	-11.3114
四天	-11.3116
送上	-11.3116
来住	-11.3116
挺便宜的	-11.3117
▁苹果收到了	-11.3119
睡着	-11.312
厚度	-11.3121
这么差劲	-11.3123
背心	-11.3123
得不得了	-11.3125
给大家	-11.3125
▁住的	-11.3125
有头屑	-11.3126
运行稳定	-11.3127
还是有点	-11.3127
买单	-11.3128
▁一直在用	-11.313
成功的	-11.3131
号到	-11.3132
房间还	-11.3136
比较远	-11.3136
进入房间	-11.3136
比外面	-11.3136
备用	-11.314
房间设施一般	-11.3142
以免	-11.3144
宽屏	-11.3146
还有什么	-11.3146
招	-11.3148
可以看	-11.3149
强烈要求	-11.315
脆弱	-11.3151
搞什么	-11.3151
下次再	-11.3155
的招待所	-11.3157
再也	-11.3159
无线网络	-11.3161
2.5	-11.3161
给朋友	-11.3163
感觉被坑了	-11.3164
跟不上	-11.3165
对他	-11.3166
手里	-11.3169
建议酒店	-11.3172
爽脆	-11.3172
最后一天	-11.3174
买不到	-11.3174
low	-11.3178
很惊喜	-11.3178
冷冰冰的	-11.3179
就是因为	-11.318
就收到了	-11.3182
服务业	-11.3184
送礼	-11.3184
里有	-11.3185
要想	-11.3185
一回	-11.3185
制作	-11.3186
488	-11.3186
冷水	-11.3188
其次是	-11.3189
内存条	-11.3192
开放	-11.3195
就是坏的	-11.3198
转换	-11.3201
电子书	-11.3202
学者	-11.3203
惊艳	-11.3207
环境和	-11.3207
总要	-11.3209
现在我	-11.3211
暖	-11.3213
他家	-11.3214
的大小	-11.3214
推荐给	-11.3214
不太好找	-11.3216
品质好	-11.3217
大瓶的	-11.3217
箱子里	-11.3218
再次入住	-11.3219
房间还不错	-11.3222
合算	-11.3223
酸酸的	-11.3223
基本上是	-11.3228
也很干净	-11.3232
隔壁的	-11.3234
错过了	-11.3235
阅	-11.3237
以后不会	-11.3237
人心	-11.3238
间隔	-11.3239
不堪	-11.3242
影响心情	-11.3244
▁大小	-11.3245
有空	-11.3248
▁东西还不错	-11.3248
却发现	-11.3249
道德	-11.3249
中果	-11.3249
已经有	-11.325
其余的	-11.325
讲述	-11.3254
过期	-11.3254
阴	-11.3255
▁外观很漂亮	-11.3255
▁请问	-11.3256
很帅气	-11.3256
下次还会	-11.3257
多种	-11.3257
多分钟	-11.3261
??????	-11.3261
很失望的一次购物	-11.3264
试了下	-11.3264
更高	-11.3265
▁目前	-11.3265
使我	-11.3268
固	-11.3269
东西也	-11.3269
寄回去	-11.3271
哪有	-11.3278
目的	-11.3279
伤感	-11.3279
整体不错	-11.3283
态度不错	-11.3286
都找不到	-11.3286
贵的	-11.3288
一顿	-11.3288
晕死	-11.3289
中等	-11.329
▁不错的	-11.3292
很结实	-11.3293
男友	-11.3296
▁我喜欢	-11.3298
有蚊子	-11.3299
比一般的	-11.3299
去取	-11.33
维修点	-11.33
一次购物	-11.3301
无疑	-11.3301
服务态度不好	-11.3302
一看就	-11.3302
就好像	-11.3303
住的房间	-11.3304
订货	-11.3304
的厉害	-11.331
发来的	-11.331
根本没	-11.3311
因为它	-11.3312
存储卡	-11.3313
自从	-11.3313
超级划算	-11.3314
电池不耐用	-11.3314
个果	-11.3314
比其他	-11.3317
聪明	-11.3317
裤子质量不错	-11.3318
室外	-11.332
▁物超所值	-11.3326
结婚	-11.3327
这些东西	-11.333
天津	-11.3331
真是太	-11.3335
外置	-11.3336
价格和	-11.3336
进出	-11.3337
酒店位置	-11.3337
路线	-11.3339
不好找	-11.3342
对得起这个价格	-11.3344
配置高	-11.3345
包装也不错	-11.3347
皮带	-11.3348
不比	-11.3349
也不远	-11.3349
过瘾	-11.3352
没有出现	-11.3354
坏了一个	-11.3355
而不	-11.3358
比较人性化	-11.3358
色调	-11.3358
转到	-11.336
十分方便	-11.3362
送到了	-11.3365
闹铃	-11.3365
架	-11.3366
感觉还是	-11.3367
疑问	-11.337
办法	-11.337
还是比较满意的	-11.3371
很耐心	-11.3371
................	-11.3374
蔫	-11.3375
▁买了两箱	-11.3376
两晚	-11.338
超棒	-11.3382
结账时	-11.3382
三十	-11.3384
爱人	-11.3384
改进一下	-11.3385
秒杀价	-11.3385
星级标准	-11.3386
服务不好	-11.3387
大黑边	-11.3388
帮你	-11.3389
担保	-11.3389
料子很好	-11.3389
买它	-11.3389
重装系统	-11.3395
案	-11.3395
门前	-11.3396
下次还会光顾	-11.3397
给父母	-11.3397
很柔顺	-11.3399
问服务员	-11.3399
汁多	-11.34
别的酒店	-11.34
认同	-11.3401
剪	-11.3401
▁我买了	-11.3402
▁华为平板	-11.3402
传输	-11.3403
外接	-11.3403
一大早	-11.3406
雪糕	-11.3406
加个	-11.3407
掉色严重	-11.3407
有股	-11.341
装好	-11.341
标价	-11.3412
那时候	-11.3413
因为他	-11.3413
寄回	-11.3415
很难看	-11.3416
低音	-11.3418
持续	-11.3418
智能手机	-11.3419
给别人	-11.342
成就	-11.3422
多次购买了	-11.3422
老公说	-11.3423
的优点	-11.3425
看下	-11.3426
也不新鲜	-11.3426
不流畅	-11.3426
朴实	-11.3426
拿出来卖	-11.3428
▁这条裤子	-11.3428
XX	-11.3428
销	-11.3428
干的	-11.3432
留着	-11.3437
染	-11.3438
不咋样	-11.3438
哭了	-11.3441
华为售后	-11.3443
签收了	-11.3444
到是	-11.3446
我们就	-11.3446
得到的	-11.3446
牙膏	-11.3447
舒心	-11.3447
浴帘	-11.345
假日酒店	-11.3451
不是很理想	-11.3451
出风口	-11.3453
第一本	-11.3455
要是有	-11.3456
汁	-11.3457
的世界	-11.3458
很小的	-11.3459
此时	-11.3459
头一次	-11.346
让我觉得	-11.3462
很遗憾	-11.3465
澡	-11.3466
大堂的	-11.3466
288	-11.3468
过一次	-11.3468
例子	-11.3468
的一次网购	-11.3469
嫌麻烦	-11.3469
吃亏	-11.347
都很快	-11.347
卸载	-11.3471
付出	-11.3471
新买的	-11.3472
用了几次	-11.3473
出货	-11.3476
发霉了	-11.3483
1-2	-11.3484
不含早餐	-11.3485
重新分区	-11.3485
899	-11.3486
惊讶	-11.3487
超级大	-11.3488
也说	-11.3492
杀毒软件	-11.3492
水果店	-11.3493
室	-11.3494
优质	-11.3498
丰富的	-11.3498
给宝宝	-11.3501
顿时	-11.3502
要多	-11.3502
只能在	-11.3504
餐具	-11.3504
▁8	-11.3504
轮	-11.3506
一般般吧	-11.3507
的心理	-11.351
▁XP	-11.3512
香香的	-11.3513
伴	-11.3515
科	-11.3515
捡	-11.3517
也是这样	-11.3518
惊	-11.3519
▁这个平板	-11.3521
明星	-11.3521
▁不好意思	-11.3522
同事说	-11.3522
第一次住	-11.3523
勤	-11.3524
养生	-11.3525
美食	-11.3525
人民币	-11.3526
都有了	-11.3526
一如既往	-11.3527
也大	-11.3529
浴	-11.3531
迎宾	-11.3531
洗浴	-11.3532
妙	-11.3532
这间	-11.3532
识	-11.3532
是一家	-11.3534
还是没有	-11.3534
的房费	-11.3534
踩	-11.3535
刚买的	-11.3535
邮政	-11.3536
缓慢	-11.3536
摸上去	-11.3537
兼容	-11.3538
船	-11.3538
钻	-11.3538
STN	-11.3539
扣子	-11.3539
手机壳	-11.354
表演	-11.3541
物质	-11.3541
扁	-11.3541
建设	-11.3541
那段	-11.3541
与卖家描述的	-11.3542
古代	-11.3542
office	-11.3542
」	-11.3542
运送速度很快	-11.3542
茶叶	-11.3542
水分很足	-11.3542
QS	-11.3542
4096	-11.3543
水份足	-11.3543
减肥	-11.3543
背光	-11.3543
微微	-11.3543
软软的	-11.3544
难免	-11.3544
速度也	-11.3544
专家	-11.3544
不厚道	-11.3544
物流速度	-11.3544
部位	-11.3545
购物中心	-11.3545
事儿	-11.3545
照样	-11.3545
融	-11.3545
液	-11.3546
之后就	-11.3546
标示	-11.3546
技术人员	-11.3548
安装师傅	-11.3548
太划算了	-11.3549
质量有保障	-11.355
全部是	-11.355
这个套装	-11.3551
真后悔	-11.3551
男装	-11.3552
▁儿子	-11.3553
一个房间	-11.3554
可能因为	-11.3555
男孩	-11.3558
长头皮屑	-11.356
长得	-11.3563
年纪	-11.3564
有多少	-11.3565
不正	-11.3566
房间比较宽敞	-11.3568
头顶	-11.3569
没有那么	-11.357
908	-11.357
不怎样	-11.3572
下班了	-11.3572
再也不会买了	-11.3573
给换了	-11.3575
都是骗人的	-11.3578
无任何	-11.3579
▁裤子很好看	-11.3579
商业区	-11.358
自驾车	-11.358
▁the	-11.358
汇	-11.358
按下去	-11.358
政治	-11.3582
没有任何问题	-11.3582
▁裤子质量非常好	-11.3582
而又	-11.3583
五星标准	-11.3584
酒店的房间	-11.3587
在京东买水果	-11.3587
很有质感	-11.3588
当当的	-11.359
很快就收到了	-11.3591
二个	-11.3591
▁机身	-11.3591
在电脑上	-11.3593
证据	-11.3593
发个	-11.3594
会把	-11.3595
很有弹性	-11.3601
卡拉	-11.3601
▁给老公买的	-11.3602
就走了	-11.3602
很细心	-11.3603
服务方面	-11.3605
损伤	-11.3605
作出	-11.3607
蓝色的	-11.3608
比之前	-11.3611
挑选	-11.3611
重点是	-11.3612
要说	-11.3613
不用担心	-11.3618
出去玩	-11.3618
颜色不错	-11.362
挺漂亮的	-11.3623
快递大哥	-11.3623
满足了	-11.3623
开通	-11.3624
净	-11.3625
战争	-11.3626
甜味	-11.3627
▁我为什么喜欢	-11.3627
很多地方	-11.3628
带上	-11.3629
海滩	-11.363
朋友的	-11.3632
出于	-11.3632
酸味	-11.3633
住过的	-11.3636
淡季	-11.3636
小了一点	-11.3637
唯独	-11.3639
让我自己	-11.364
▁非常不好	-11.3641
来个	-11.3642
服务态度极差	-11.3642
城市的	-11.3645
哇	-11.3646
还是在	-11.3646
莫名其妙的	-11.3647
酒店的位置	-11.3649
就是有点小	-11.3652
那条	-11.3654
因为我们	-11.3655
好喝	-11.3656
没有空调	-11.3656
也差不多	-11.3658
我个人认为	-11.3658
真是让人	-11.3659
破洞	-11.366
不晓得	-11.3661
脱发	-11.3661
明确	-11.3662
一条街	-11.3662
比较流畅	-11.3662
▁布料	-11.3662
最好的酒店了	-11.3664
挺合适的	-11.3664
预装的	-11.3666
都非常好	-11.3666
一道	-11.3666
▁样式不错	-11.3673
在路上	-11.3673
几十	-11.3674
全套	-11.3679
款式不错	-11.368
其他地方	-11.3682
下次还会光顾的	-11.3682
也蛮	-11.3683
所说	-11.3683
还把	-11.3687
以后还	-11.3687
▁宝贝不错	-11.3688
当我们	-11.3688
航班	-11.369
轻巧	-11.3691
服务的	-11.3692
热心	-11.3694
余	-11.3694
73	-11.3695
▁双	-11.3695
2005	-11.37
OT	-11.3703
▁新鲜水果	-11.3703
的力量	-11.3704
舒适度	-11.3705
羊	-11.3706
要先	-11.3707
▁太坑了	-11.3707
京东也	-11.3708
内存小了点	-11.3713
木有	-11.3715
了一次	-11.3719
不是很多	-11.372
有好几个	-11.372
你不	-11.3722
▁硬件	-11.3729
客房服务员	-11.3734
厚实	-11.3736
真是醉了	-11.3736
▁没想到	-11.3739
发到	-11.374
之作	-11.374
延	-11.3745
预	-11.3745
魅力	-11.3747
小时左右	-11.3748
车位	-11.3749
卫生差	-11.375
行程	-11.3752
刚拿到	-11.3753
散客	-11.3754
▁送的	-11.3756
我比较喜欢	-11.3757
闻着	-11.3757
从新	-11.3758
再一次	-11.3758
建议不要买	-11.3759
总得来说	-11.376
很无语	-11.376
开空调	-11.3761
房间有点小	-11.3761
一问	-11.3762
名片	-11.3767
是否有	-11.3769
不了解	-11.3773
很厉害	-11.3773
保障	-11.3774
好吃的	-11.3774
很有趣	-11.3775
3.5	-11.3776
日下午	-11.3776
威海	-11.3777
就不用	-11.3778
2009	-11.3779
飞快	-11.3779
太远了	-11.378
惨	-11.3781
有破损	-11.3782
不能接受	-11.3783
▁反正	-11.3785
抹	-11.3788
翻译的	-11.379
▁第一次购买	-11.3791
商城	-11.3794
刚买完	-11.3794
▁昨天下单	-11.3795
钻石会员	-11.3796
让我失望	-11.3798
还特意	-11.3798
一斤的	-11.3805
飘	-11.3805
撒	-11.3806
白条	-11.3808
才好	-11.3808
这种书	-11.3808
度过	-11.3809
卡的要死	-11.3809
全球	-11.3812
黄山	-11.3815
物流速度很快	-11.3815
谢谢快递小哥	-11.3818
拆了	-11.3818
要收费	-11.3819
免费上网	-11.3821
货到了	-11.3821
低于	-11.3822
年代的	-11.3823
接送	-11.3824
浴袍	-11.3825
这种酒店	-11.3825
韩国人	-11.3825
一个苹果	-11.3827
翻新	-11.3827
!!!!!!!!!	-11.383
也不想	-11.383
有点遗憾	-11.383
又好	-11.3832
吃东西	-11.3834
做工细致	-11.3834
嘻嘻	-11.3835
自己喜欢的	-11.3836
酒店是	-11.3839
没什么用	-11.3839
很气派	-11.3839
物流信息	-11.3843
视觉	-11.3845
是不错	-11.3848
可以打	-11.3849
不相符	-11.385
的首选	-11.3851
更改	-11.3852
门外	-11.3854
干了	-11.3854
服务员态度很好	-11.3855
超级垃圾	-11.3856
冷气	-11.3864
思路	-11.3864
参数	-11.3864
是给	-11.3865
国产品牌	-11.3865
外观很漂亮	-11.3865
但是酒店	-11.3866
不够大	-11.3867
速度还可以	-11.3876
怀疑是假货	-11.3879
房间没有窗户	-11.3881
就给我	-11.3885
大于	-11.3885
劣质	-11.3886
的游戏	-11.3887
第五	-11.3887
度假酒店	-11.3889
有关系	-11.389
入住当天	-11.3892
周六	-11.3892
不正常	-11.3897
天啊	-11.3899
:(	-11.39
便宜实惠	-11.3901
▁一颗星都不想给	-11.3901
▁以后	-11.3903
证件	-11.3903
中华	-11.3904
为什么没有	-11.3906
is	-11.3908
三星标准	-11.3913
起了	-11.3913
到今天	-11.3917
环境一般	-11.3917
CD	-11.3917
反正就是	-11.3919
什么样的	-11.3921
杯子	-11.3922
的冲动	-11.3923
可恶	-11.3924
读后	-11.3926
聚	-11.3928
让人满意	-11.393
服务还不错	-11.393
崩溃	-11.3933
比例	-11.3933
流水	-11.3935
▁物流速度快	-11.3935
情侣	-11.3935
值了	-11.3936
活动价格	-11.3937
说得	-11.3937
忍受	-11.3937
快递也	-11.3939
那款	-11.394
▁一次	-11.394
囤	-11.3941
冒	-11.3942
的客房	-11.3946
真的很棒	-11.3948
结尾	-11.395
通话质量	-11.3951
的读者	-11.3951
刚到手	-11.3956
不给换	-11.3957
左手	-11.3958
院	-11.3959
刺	-11.3959
吐	-11.3961
但是如果	-11.3964
非常合适	-11.3964
的说法	-11.3964
出门就是	-11.3965
外部	-11.3966
同行	-11.3966
园林	-11.3967
▁酒店的环境	-11.3968
爹	-11.397
▁可是	-11.3971
很用心	-11.3971
啤酒	-11.3971
身高	-11.3974
一点都不脆	-11.3978
装机	-11.398
就是小了点	-11.398
没有数据线	-11.3981
这个故事	-11.3981
再评	-11.3981
额外	-11.3983
包含	-11.3984
速度非常快	-11.3984
都很近	-11.3984
丰盛	-11.3985
怎么用	-11.3986
五一	-11.3987
不过还好	-11.3987
这样一个	-11.3988
感觉还好	-11.3988
就是有点	-11.3992
一名	-11.3992
几百	-11.3992
总机	-11.3993
▁这衣服	-11.3994
没有摄像头	-11.3995
礼	-11.3995
是不	-11.3996
柔和	-11.3998
噱头	-11.4
不敢相信	-11.4
预计	-11.4001
以后不会再	-11.4001
一倍	-11.4003
不是一般的差	-11.4004
星级的	-11.4004
自己找	-11.4004
上看	-11.401
你想	-11.401
摘	-11.4013
洗护用品	-11.4014
比上次	-11.4014
盒子里	-11.4015
卫生间里	-11.4015
验证	-11.4019
屏幕是	-11.402
上档次	-11.4021
再到	-11.4022
国企	-11.4022
能听到	-11.4023
房间设施陈旧	-11.4024
害的我	-11.4024
个头均匀	-11.4025
医	-11.4029
我妈	-11.4029
彼此	-11.403
还是坏的	-11.4032
一家酒店	-11.4033
两台	-11.4033
▁重量	-11.4033
还算干净	-11.4036
星的标准	-11.4036
震	-11.4036
角落	-11.4038
苍蝇	-11.4038
房间和	-11.4038
污	-11.4039
包包	-11.4042
停止	-11.4042
海尔	-11.4043
sim	-11.4043
百度	-11.4045
围	-11.4047
时间太长	-11.4048
一次愉快的购物	-11.4048
载	-11.4048
直达	-11.4049
比较老	-11.405
半瓶	-11.4052
官	-11.4052
这方面	-11.4052
这洗发水	-11.4052
便利店	-11.4053
往返	-11.4053
结算	-11.4056
不太习惯	-11.4056
会员卡	-11.4056
了两次	-11.4057
网上购物	-11.4057
超级赞	-11.4057
水果了	-11.4058
导	-11.4058
尺	-11.4058
仓	-11.4059
房间还可以	-11.406
晒单	-11.406
文本	-11.406
习	-11.406
竖	-11.406
我看到	-11.406
伪	-11.4061
打扫卫生	-11.4061
无缘无故	-11.4062
装修风格	-11.4062
越做越好	-11.4064
戒	-11.4064
翠	-11.4064
走进	-11.4065
陪伴	-11.4065
▁做工不错	-11.4065
门卫	-11.4065
翻阅	-11.4065
感叹	-11.4065
采取	-11.4066
买下	-11.4066
蒸	-11.4066
拉肚子	-11.4066
迷惑	-11.4067
宏	-11.4067
通讯录	-11.4067
DIY	-11.4067
眼泪	-11.4068
索菲特	-11.4068
模仿	-11.4068
只为点滴幸福	-11.4068
清晨	-11.4068
导游	-11.4068
&#183;&#183;	-11.4068
一级棒	-11.4068
排行榜	-11.4069
奇迹	-11.4069
腰粗	-11.4069
武夷山	-11.4069
单人床	-11.4069
方案	-11.4069
附件	-11.4069
工程	-11.4069
更重要的是	-11.4069
音色	-11.407
亲情	-11.407
忽悠人	-11.4071
比赛	-11.4072
如果我	-11.4072
体重	-11.4072
对比了一下	-11.4072
▁只是	-11.4072
更别说	-11.4073
第二部	-11.4073
一切正常	-11.4074
清脆	-11.4074
非常好看	-11.4075
刚到	-11.4078
辣	-11.4078
身处	-11.4078
预定了	-11.4078
质量杠杠的	-11.408
坐车	-11.4081
遇	-11.4084
能买到	-11.4084
原版	-11.4085
价格不便宜	-11.4086
看完之后	-11.4087
洗不掉	-11.4087
等了很久	-11.4087
之选	-11.4088
就不用说了	-11.4093
仅仅是	-11.4095
一向	-11.4095
开头	-11.4097
关心	-11.4098
没有什么问题	-11.4099
两者	-11.4101
站点	-11.4103
签名	-11.4103
买这个	-11.4106
这玩意	-11.4108
▁苹果个头不大	-11.411
谢谢京东	-11.411
▁帮别人买的	-11.4112
半个	-11.4113
也不是很	-11.4114
在门口	-11.4114
道你们	-11.4115
十年	-11.4115
离地铁	-11.4115
高了	-11.4115
缺点就是	-11.4117
规模	-11.4118
的一塌糊涂	-11.4118
决不	-11.4119
脑残	-11.412
的机会	-11.4121
几本书	-11.4121
车辆	-11.4122
那你	-11.4123
这次买了	-11.4126
单果	-11.4127
的学生	-11.4127
的表现	-11.4127
卡门	-11.4129
的牛仔裤	-11.4131
服务态度很差	-11.4132
很累	-11.4133
穿起来舒服	-11.4135
用了一下	-11.4137
就差	-11.4138
问了客服	-11.4139
组合	-11.4141
回了	-11.4145
是不是正品	-11.4146
清晰的	-11.4146
▁特别	-11.4148
没什么区别	-11.4149
京东的售后	-11.4152
使用方便	-11.4153
我们酒店	-11.4154
的距离	-11.4157
新装修的	-11.4157
放大	-11.4158
和其他	-11.4159
华为的平板	-11.4159
仁	-11.4161
和他们	-11.4163
1080	-11.4164
▁清扬洗发水	-11.4168
看上	-11.4168
碰上	-11.4168
用了头发	-11.4168
脆的	-11.4169
传说中的	-11.4171
效果不好	-11.4174
却要	-11.4175
不爱	-11.4177
东西都	-11.4177
不知道有没有	-11.4178
▁烟台红富士	-11.4179
买大了	-11.418
晕倒	-11.4184
▁给妈妈买的	-11.4184
很柔软	-11.4184
要收	-11.4186
真失望	-11.4186
▁苹果不大	-11.419
退回去	-11.4191
点点	-11.4192
讲了	-11.4192
▁帮同事买的	-11.4193
悲剧	-11.4194
热情的	-11.4195
季节	-11.4196
▁手感不错	-11.4197
中式	-11.4198
用着还不错	-11.4198
信用卡担保	-11.4199
著作	-11.4204
出问题了	-11.4207
忘记了	-11.4207
比较实惠	-11.4207
是对	-11.4208
最佳	-11.4208
真的很一般	-11.4209
盗版	-11.4209
这幺小的	-11.4213
形式	-11.4213
武汉	-11.4213
继续努力	-11.4214
好感	-11.4214
京东送货	-11.4216
评价了	-11.4217
小得可怜	-11.4219
顾	-11.422
我老公	-11.4222
繁华	-11.4226
的不要不要的	-11.4226
要小心	-11.4226
我可以	-11.4228
送上门	-11.4228
他是	-11.4229
▁下次	-11.4231
面料也	-11.4231
▁先	-11.4231
了个	-11.4232
但是却	-11.4237
有待改进	-11.4237
比较热	-11.4238
▁差评差评	-11.4239
▁赞	-11.424
到的时候	-11.4243
发错货	-11.4243
几个人	-11.4244
饱	-11.4245
拍摄效果	-11.4245
灵敏	-11.4248
奇葩	-11.4248
和朋友	-11.4249
79	-11.425
很酸	-11.425
接听	-11.4252
寄来	-11.4252
明白了	-11.4253
▁你们	-11.4254
的版本	-11.4261
审核	-11.4262
尾	-11.4263
房间没有	-11.4263
不行啊	-11.4264
不建议入住	-11.4264
他在	-11.4265
斑点	-11.4266
人在	-11.4267
乐趣	-11.4268
看得出	-11.4268
▁物流很给力	-11.4271
4200	-11.4271
压坏了	-11.4273
放心购买	-11.4274
星期	-11.4274
小一点	-11.4275
昨天下单	-11.4276
写意	-11.4278
丹	-11.428
又实惠	-11.4284
这款产品	-11.4285
人体	-11.4286
这个机子	-11.4286
正确的	-11.4287
要把	-11.4287
第二天就收到了	-11.429
包子	-11.429
▁非常喜欢	-11.4293
不推荐购买	-11.4293
的那些	-11.4297
不值得买	-11.4297
晓	-11.43
▁房间很干净	-11.4301
!~	-11.4302
比如说	-11.4303
▁这个价格	-11.4304
有毛病	-11.4304
190	-11.4305
毛躁	-11.4311
上市	-11.4313
最新的	-11.4313
第一次购买	-11.4313
屏幕亮度	-11.4313
看看视频	-11.4314
更好的	-11.4315
这辈子	-11.4319
的描述	-11.432
就拿	-11.4322
设施还可以	-11.4325
人都	-11.4328
换一个	-11.433
郑州	-11.433
不痒	-11.4331
支架	-11.4331
就没电了	-11.4332
▁感谢	-11.4332
听见	-11.4333
-1	-11.4333
在携程上	-11.4336
何必	-11.4338
电池待机时间	-11.4338
呵呵呵	-11.434
▁超值	-11.4344
旋转	-11.4346
还不给	-11.4349
名称	-11.4349
▁做工精细	-11.435
买这本书	-11.4354
牺牲	-11.4355
与我	-11.4356
256	-11.4357
青春版	-11.4359
到家了	-11.4362
睡了	-11.4364
付费	-11.4366
就完美了	-11.4367
浪漫	-11.4367
劳	-11.4368
下次还会买	-11.4368
都还	-11.4369
最便宜的	-11.4371
做什么	-11.4372
一直在京东买	-11.4375
是为了	-11.4379
玛	-11.438
就是说	-11.438
非常多	-11.4384
还要自己	-11.4386
双床	-11.4389
3100	-11.439
AMD	-11.4393
自驾游	-11.4395
感受到	-11.4396
有点旧	-11.4399
!4、	-11.44
油腻	-11.4401
怎么就	-11.4401
学院	-11.4401
十二个	-11.4402
确实有	-11.4403
停车费	-11.4403
容易死机	-11.4404
起球	-11.4405
劝	-11.4406
定位	-11.4407
楼层服务员	-11.4407
洗完后	-11.4409
比较脆	-11.4411
公交	-11.4412
时发现	-11.4412
比较合理	-11.4413
▁物品	-11.4413
京东就是快	-11.4417
▁裤子长	-11.4418
坐地铁	-11.4418
别买了	-11.4421
立体声	-11.4422
很软	-11.4423
堪称	-11.4424
的生命	-11.4428
摸着很舒服	-11.4428
起床	-11.4429
没见	-11.443
今天早上	-11.443
我还没有	-11.4432
风味	-11.4433
值班经理	-11.4433
甜的	-11.4436
很放心	-11.4436
万一	-11.4437
▁差评差评差评	-11.4437
▁简直	-11.4441
就烂了	-11.4443
会卡	-11.4443
买了两瓶	-11.4444
以前买过	-11.4444
没货了	-11.4445
也快	-11.4446
联系不上	-11.4448
安装后	-11.4448
看到这本书	-11.4449
的解释	-11.4452
我想问	-11.4453
四星级的酒店	-11.4455
拎	-11.4456
但实际	-11.4456
裤子质量	-11.4456
音频	-11.4457
元买的	-11.4458
承认	-11.4458
四次	-11.4458
天堂	-11.4459
一两天	-11.4459
几张	-11.4461
用华为	-11.4461
裤型	-11.4462
108	-11.4463
送货时间	-11.4464
迷茫	-11.4465
在晚上	-11.4467
至极	-11.4468
其他的都	-11.447
品种少	-11.4471
固定	-11.4473
买到了	-11.4474
怎么没有	-11.4474
掉毛	-11.4475
带孩子	-11.4475
两点	-11.4476
把我的	-11.4477
每个人都	-11.4478
会影响	-11.4481
不准	-11.4481
夫	-11.4482
国贸	-11.4484
内的	-11.4485
430	-11.4485
了一把	-11.4486
39	-11.4487
初步	-11.4489
还会再来	-11.4489
早起	-11.449
都不够	-11.449
天线	-11.4494
不足的是	-11.4494
免费提供	-11.4495
就因为	-11.4495
的体验	-11.4495
风扇声音	-11.4496
我们自己	-11.4497
当天晚上	-11.4498
汽车站	-11.4498
二手货	-11.4498
绝对差评	-11.45
心想	-11.4501
这是第一次	-11.4501
要命	-11.4504
酒店服务员	-11.4507
太难	-11.4508
特差	-11.4508
太旧了	-11.4509
这个产品	-11.4509
有碰伤	-11.4509
这样的东西	-11.451
放松	-11.4511
几本	-11.4512
78	-11.4512
去问	-11.4516
结果发现	-11.4521
强大的	-11.4525
对这本书	-11.4526
墙壁	-11.4526
生存	-11.4527
可靠	-11.4528
广东	-11.4529
坚强	-11.4529
降低	-11.4529
出错	-11.453
后台	-11.4532
的需求	-11.4533
污染	-11.4534
涂	-11.4536
无敌	-11.4536
▁用起来	-11.4538
很细致	-11.4539
格式化	-11.454
你可以	-11.454
地理位置好	-11.4541
前台服务人员	-11.4546
无法忍受	-11.4547
参观	-11.4547
档	-11.4549
颜色不一样	-11.4549
要知道	-11.455
▁昨晚	-11.4551
迹	-11.4551
专员	-11.4552
深夜	-11.4555
没坏	-11.4555
来看看	-11.4556
去前台	-11.4557
经常会	-11.4557
直接就	-11.4558
应该可以	-11.456
几十块钱	-11.4561
结果第二天	-11.4562
然后就是	-11.4562
执行	-11.4562
门口有	-11.4563
旧的	-11.4563
鼓	-11.4563
她很喜欢	-11.4565
是对的	-11.4565
趟	-11.4568
耳塞	-11.4569
有质感	-11.4569
修好	-11.4572
不过这	-11.4573
▁我买	-11.4573
花钱买	-11.4575
床很舒服	-11.4577
售	-11.4578
精品	-11.4581
淋浴头	-11.4583
不是因为	-11.4583
喷头	-11.4584
孩子喜欢	-11.4585
不褪色	-11.4585
全屏	-11.4586
论坛	-11.4587
1.1	-11.4588
智	-11.4588
油性	-11.4589
服务费	-11.459
贪	-11.459
预期	-11.4591
一间房	-11.4592
价保	-11.4592
功	-11.4592
报销	-11.4595
东莞	-11.4596
致电	-11.4597
十分的	-11.4598
▁上当了	-11.4599
之旅	-11.4601
肥	-11.4601
索性	-11.4602
▁re	-11.4603
告	-11.4603
清凉	-11.4603
猪	-11.4604
可惜了	-11.4604
舞	-11.4606
提货	-11.4607
洗一次	-11.4608
的道理	-11.4608
新疆	-11.4609
呐	-11.461
新装修	-11.4611
吊	-11.4612
tm	-11.4612
毕业	-11.4612
反光	-11.4613
的欲望	-11.4613
奥运	-11.4614
用具	-11.4614
祝福	-11.4614
借口	-11.4614
▁光驱	-11.4615
提示音	-11.4615
定义	-11.4617
就买	-11.4617
▁内存	-11.4617
查到	-11.4618
桑	-11.4618
欢	-11.4618
要求不高	-11.4619
青年	-11.4619
欠佳	-11.4619
兼	-11.4619
组织	-11.462
内涵	-11.462
梅	-11.462
进不去	-11.462
听不到	-11.462
材	-11.462
开阔	-11.462
事实证明	-11.4621
千万	-11.4621
较新	-11.4621
治	-11.4621
森	-11.4622
mAh	-11.4622
唐	-11.4623
哈尔滨	-11.4623
形同虚设	-11.4623
all	-11.4623
状	-11.4623
qq	-11.4623
壮	-11.4624
优先	-11.4624
秦	-11.4624
挑战	-11.4624
THINKPAD	-11.4624
省时省力	-11.4624
▁宾馆索	-11.4624
脸色	-11.4624
跟他们	-11.4624
太不值了	-11.4624
浏览网页	-11.4624
啰	-11.4624
圆领	-11.4625
吾	-11.4625
红红的	-11.4625
南昌	-11.4625
安逸	-11.4625
剂	-11.4626
收集	-11.4626
三人间	-11.4626
韩版	-11.4626
双核	-11.4627
不太理想	-11.4628
交通也很方便	-11.4628
MMC	-11.4628
录像	-11.4628
洗护	-11.4628
曲	-11.4628
洗漱	-11.4629
电池容量	-11.4629
穿在身上很舒服	-11.4629
吸烟	-11.463
咨询客服	-11.463
不能说	-11.4631
秒钟	-11.4631
展开	-11.4631
斜对面	-11.4632
密封	-11.4632
打开盒子	-11.4633
还是一样	-11.4634
接通	-11.4634
住了两晚	-11.4635
中毒	-11.4635
给快递小哥	-11.4635
有一次	-11.4635
质量可靠	-11.4636
隔音太差	-11.4636
前两天	-11.4637
价格偏贵	-11.4637
不理解	-11.4637
份量	-11.4638
▁挺好吃的	-11.4638
体会到	-11.4639
没电	-11.464
不想再	-11.464
很烦	-11.4641
客服还	-11.4641
有点郁闷	-11.4642
显存	-11.4645
功夫	-11.4645
订单号	-11.4646
而在	-11.4648
腰围	-11.4649
我手机	-11.465
惠普的	-11.465
的朋友们	-11.4651
发的货	-11.4651
太喜欢了	-11.4652
六楼	-11.4653
有名的	-11.4653
很担心	-11.4655
有效果	-11.4656
算不上	-11.4656
包装严实	-11.4656
一身	-11.4657
烦死了	-11.4657
▁酒店的位置	-11.4658
用得	-11.4658
更喜欢	-11.4659
▁分辨率太低	-11.466
还那么贵	-11.4661
几位	-11.4661
非常安静	-11.4662
带有	-11.4664
能否	-11.4665
失真	-11.4665
大妈	-11.4666
生命的	-11.4668
扔掉了	-11.4668
的支持	-11.4668
态度很差	-11.4668
▁不怎么好	-11.4669
差些	-11.467
非常舒适	-11.467
有优惠	-11.4671
基本满意	-11.4672
早餐很一般	-11.4673
钓鱼	-11.4673
吃苹果	-11.4674
以后再也不买了	-11.4675
小店	-11.4677
都漏了	-11.4678
▁您好	-11.4678
西式	-11.4678
郁闷啊	-11.4679
第一次碰到	-11.4681
白白	-11.4681
价钱便宜	-11.4681
很多次了	-11.4683
一杯	-11.4684
温和	-11.4684
08	-11.4685
他也	-11.4685
入住的是	-11.4687
穿着很合身	-11.4687
早餐很丰富	-11.469
倒也	-11.4691
设计师	-11.4692
具体的	-11.4693
偶然	-11.4693
毛糙	-11.4693
设计不合理	-11.4694
送上楼	-11.4695
▁垃圾中的战斗机	-11.4696
给个说法	-11.4696
再见	-11.4696
点前	-11.4697
乳	-11.4698
效果差	-11.4698
▁建议	-11.47
5-6	-11.4702
比较舒适	-11.4702
歪	-11.4702
不含早	-11.4702
感觉还是不错的	-11.4703
说到	-11.4703
sd	-11.4704
一天就	-11.4705
坑了	-11.4707
挺多	-11.4708
严格	-11.4711
不认识	-11.4712
把书	-11.4713
不是很清楚	-11.4714
住了一天	-11.4715
还不够	-11.4716
吓	-11.472
感觉比较	-11.4721
开口	-11.4721
果果	-11.4723
给女儿	-11.4726
做的不错	-11.4727
▁买完就降价	-11.4728
个月了	-11.4729
不熟	-11.473
▁瓶子	-11.473
足够用了	-11.4734
媲美	-11.4734
读到	-11.4734
不能直接	-11.4734
开不了	-11.4736
放进	-11.4736
你们自己	-11.4737
德国	-11.4737
大屏幕	-11.4738
没有早餐	-11.4741
京东就是	-11.4743
一个多小时	-11.4743
我晕	-11.4746
岛上	-11.4747
双人	-11.4747
▁总体感觉不错	-11.4749
服务和	-11.4751
插头	-11.4752
态度非常好	-11.4752
▁给老人买的	-11.4752
还没用呢	-11.4753
十天	-11.4753
▁果	-11.4757
死活	-11.4757
▁手机不错	-11.4758
差太远了	-11.4758
亲戚	-11.4769
觉得有点	-11.477
点吧	-11.4772
每一个都	-11.4773
竞争	-11.4775
3)	-11.4776
网站上	-11.4777
没声音	-11.4777
几句	-11.4778
便携	-11.4778
跟其他	-11.4778
就一直	-11.4779
▁酒店环境不错	-11.4782
的看法	-11.4785
我住在	-11.4785
声卡驱动	-11.4789
敬	-11.479
:1,	-11.479
起来了	-11.479
写评论	-11.4793
非常的不错	-11.4795
下水道	-11.4797
都不想	-11.4797
便是	-11.4798
早餐很丰盛	-11.4798
我订的是	-11.48
奇怪的是	-11.4802
安卓系统	-11.4806
掉线	-11.4808
▁酒店的地理位置	-11.4811
十多	-11.4815
的一个酒店	-11.4816
的水准	-11.4816
回头	-11.4816
全书	-11.4816
住这里了	-11.4818
以前用的	-11.482
许	-11.482
▁完美屏	-11.4823
三元	-11.4823
怪怪的	-11.4824
我只是	-11.4826
▁刚到手	-11.4827
简直了	-11.4828
典型	-11.4828
专用的	-11.483
好差	-11.4831
▁打开	-11.4831
位置好	-11.4831
装订	-11.4831
看评价	-11.4832
就是觉得	-11.4833
是最好的	-11.4837
好多东西	-11.4837
换房间	-11.4842
招牌	-11.4844
810	-11.4844
高峰	-11.4846
我收到的	-11.4847
都漏出来了	-11.4848
分钟才	-11.4848
根本不值	-11.485
▁苹果太小了	-11.4851
我买的时候	-11.4852
从来不	-11.4855
比较低	-11.4855
不能吃	-11.4856
东西还没用	-11.4857
两间房	-11.4857
山东	-11.4858
就看到	-11.4859
历史的	-11.4862
在酒店里	-11.4864
太近	-11.4865
01	-11.4865
小强	-11.4867
▁产品不错	-11.4869
2.1	-11.487
水果新鲜	-11.4872
实体	-11.4872
里面还有	-11.4873
客服电话	-11.4873
可选	-11.4874
才发货	-11.4874
超级差	-11.4874
噪音大	-11.4874
汉	-11.4876
夸	-11.4876
有必要	-11.4876
星星	-11.4876
从未	-11.4878
不放心	-11.4879
▁外壳	-11.4883
住的酒店	-11.4885
之后发现	-11.4885
挺快	-11.4885
又买了	-11.4887
卡死	-11.4888
有点差	-11.4888
为此	-11.4889
左右的	-11.489
没收到货	-11.489
偏差	-11.4891
小个	-11.4894
不能下载	-11.4894
产的	-11.4895
就用	-11.4895
舍不得	-11.4895
里面的内容	-11.4898
的外观	-11.4901
常识	-11.4901
领域	-11.4901
亚龙湾	-11.4902
只需要	-11.4903
然后我	-11.4905
带个	-11.4907
春节期间	-11.4908
差距太大	-11.4908
........	-11.4909
▁屏幕大	-11.4911
挺新鲜	-11.4912
车站	-11.4912
快递费	-11.4913
我还以为	-11.4914
原来的	-11.4917
我所	-11.4918
穿着很合适	-11.4918
有送	-11.4919
就是这么	-11.4921
露出	-11.4922
日晚	-11.4922
买的苹果	-11.4924
的时候发现	-11.4924
看样子	-11.4924
态	-11.4924
不算大	-11.4925
酒店员工	-11.4926
另一	-11.4927
就变成	-11.4928
键盘设计	-11.4929
多花	-11.493
▁今年	-11.493
换机	-11.4931
晚到	-11.4932
历	-11.4933
京东水果	-11.4935
8.4	-11.4936
我们已经	-11.4937
要不就	-11.4938
账	-11.494
屏幕也	-11.4941
买回家	-11.4941
节约	-11.4942
有个别	-11.4942
卫生一般	-11.4943
自驾	-11.4944
超小	-11.4946
差差	-11.4948
收到之后	-11.495
京东小哥	-11.4954
一小	-11.4955
尼	-11.4957
65536	-11.4959
太旧	-11.4959
上学	-11.496
厂	-11.496
囤货中	-11.4961
谁买谁上当	-11.4962
纸质	-11.4963
入住酒店	-11.4963
我用的	-11.4963
酒店早餐	-11.4964
应该不会	-11.4967
那里的	-11.4968
不会用	-11.4968
标题	-11.4973
一直信任京东	-11.4974
315	-11.4977
买时	-11.4978
非常慢	-11.498
推荐大家	-11.498
三亚	-11.4982
去看看	-11.4983
抵制日货	-11.4984
的毛病	-11.4984
居然要	-11.4985
确实很	-11.4985
付钱	-11.4986
是我住过的	-11.4986
撕	-11.4987
也小	-11.4988
拼	-11.4988
放置	-11.4988
真差劲	-11.4989
房间还算干净	-11.4991
out	-11.4991
酒店也	-11.4994
以上的	-11.4997
裤子的	-11.4997
也不贵	-11.4997
第一次在京东购物	-11.4998
好一点	-11.4999
不给退	-11.5
还没穿	-11.5002
没有暖气	-11.5003
建议大家不要	-11.5005
赞赞	-11.5007
强力推荐	-11.5007
说一句	-11.5009
日本人	-11.5011
▁纯棉	-11.5012
但不	-11.5015
▁网站	-11.5016
但服务	-11.5017
月初	-11.5018
我的孩子	-11.5019
的号码	-11.5021
只需	-11.5023
有点小贵	-11.5023
爱的	-11.5023
提交	-11.5027
一圈	-11.5027
高架	-11.5028
量大	-11.5029
做工一般	-11.503
猜	-11.503
任何一个	-11.503
上面有	-11.5031
昨天买的	-11.5032
不熟悉	-11.5032
复	-11.5033
尘	-11.5034
很好的产品	-11.5034
人工	-11.5035
的宝贝	-11.5037
交代	-11.5038
很好喝	-11.5039
发给我	-11.5039
不变	-11.504
京东送货快	-11.5041
对象	-11.5041
▁晕	-11.5041
给的是	-11.5043
腐烂	-11.5046
那我	-11.5046
的物品	-11.5047
西门子	-11.5049
讲的	-11.505
真想	-11.5053
墨	-11.5053
三层	-11.5056
▁必须差评	-11.5056
好多次	-11.5058
液晶	-11.5058
需要自己	-11.5058
却说	-11.5059
无法接受	-11.506
每个都	-11.5061
不掉	-11.5061
睡的	-11.5063
注意到	-11.5063
废	-11.5065
漏的	-11.5067
头皮很痒	-11.5068
的区别	-11.5069
这个季节	-11.5069
挺好吃	-11.5071
太薄了	-11.5071
手机上	-11.5072
甩	-11.5076
!4.	-11.5076
打个	-11.5076
玩玩	-11.5077
满房	-11.5078
遭	-11.5081
不要说	-11.5082
试试看	-11.5085
▁这次的	-11.5086
的年代	-11.5087
国产手机	-11.5088
的缘故吧	-11.5088
比较重	-11.5089
了两天	-11.509
不知道是否	-11.5091
清香	-11.5091
自行车	-11.5091
▁这套书	-11.5092
订房时	-11.5093
买后	-11.5094
较快	-11.5095
▁很满意的一次购物	-11.5095
催了	-11.5095
你会	-11.5096
质量还行	-11.5096
没有损坏	-11.5097
有点高	-11.5101
一首	-11.5101
就别	-11.5102
展现	-11.5103
就不错了	-11.5104
拧	-11.5106
我说我	-11.5106
触	-11.5106
西柚	-11.5108
脾气	-11.511
值班	-11.5113
用不上	-11.5114
负责人	-11.5114
问一下	-11.5114
正式	-11.5117
住这	-11.5117
----	-11.5118
的信息	-11.5118
炸	-11.512
黑白	-11.5123
醉	-11.5123
天才收到	-11.5123
感激	-11.5127
例	-11.5128
显卡驱动	-11.5128
希望携程	-11.5129
4.0	-11.513
做到了	-11.513
对你	-11.5131
里面的东西	-11.5133
相符	-11.5135
看吧	-11.5135
江景房	-11.5136
计较	-11.5137
很精美	-11.5137
希望京东能	-11.5139
传真	-11.5139
一批	-11.514
继续买	-11.5142
的信任	-11.5144
身材	-11.5146
冲突	-11.5146
一家三口	-11.5147
使用效果	-11.5148
适	-11.5148
酒店人员	-11.5149
兼容性	-11.515
飞利浦	-11.5151
推荐给大家	-11.5153
号下午	-11.5154
落地窗	-11.5155
喜欢这个味道	-11.5155
赶上活动	-11.5156
是不能	-11.5156
酒店本身	-11.5156
给个差评	-11.5158
服务太差了	-11.5159
实在是太	-11.5159
眼前	-11.5159
一直说	-11.5161
我这个	-11.5161
博	-11.5162
电池续航	-11.5163
沿	-11.5163
实在是太差了	-11.5163
都很小	-11.5163
拿回家	-11.5164
集团	-11.5166
真心的	-11.5167
不能穿	-11.5167
要钱	-11.5169
大堂里	-11.5169
怒	-11.5169
打印	-11.5169
诚	-11.517
皇	-11.517
两张床	-11.5173
太脏了	-11.5173
出众	-11.5175
心动	-11.5176
物流很给力	-11.5176
在一楼	-11.5177
的配置	-11.5177
这货	-11.5178
给老爸	-11.5178
的气味	-11.5179
听不见	-11.5183
技能	-11.5183
Wi	-11.5183
败	-11.5185
风景区	-11.5186
一口气读完	-11.5186
是很好的	-11.5188
下单了	-11.5189
▁苹果很甜	-11.5191
逻辑	-11.5191
基本是	-11.5191
熟悉的	-11.5192
是很不错的	-11.5193
竞争力	-11.5194
持	-11.5195
胃	-11.5195
外国人	-11.5195
叹	-11.5196
太让我失望了	-11.5196
不兼容	-11.5197
兔子	-11.5197
大家说	-11.5197
索	-11.5197
勿	-11.5197
附送	-11.5197
柳	-11.5199
用不到	-11.52
对应	-11.52
重新装修	-11.52
又被	-11.5201
枯燥	-11.5202
很有耐心	-11.5202
煮	-11.5202
预定的时候	-11.5203
荡	-11.5203
可笑	-11.5204
每一位	-11.5204
内存小	-11.5204
天壤之别	-11.5205
▁这款手机	-11.5206
背景灯	-11.5206
椅	-11.5206
患	-11.5206
招呼	-11.5206
党	-11.5206
我问	-11.5206
手册	-11.5207
乌鲁木齐	-11.5207
整天	-11.5207
摇	-11.5207
制造	-11.5208
别家	-11.5208
何况	-11.5209
边角	-11.5209
疑惑	-11.5209
HK	-11.5209
数字键	-11.5209
坏了两个	-11.5209
皇帝	-11.5209
国际品牌	-11.5209
坎坷	-11.5209
万像素的摄像头	-11.5209
繁琐	-11.521
摇杆	-11.521
艺龙	-11.521
腊	-11.5211
激情	-11.5211
摄影	-11.5211
锻炼	-11.5211
不一样的卡梅拉	-11.5211
宽容	-11.5211
况且	-11.5212
一无是处	-11.5212
忽冷忽热	-11.5212
「	-11.5212
logo	-11.5212
诶	-11.5212
Baleno	-11.5212
serve	-11.5212
▁总重约	-11.5212
喂	-11.5212
蒙牛微客服	-11.5212
物流公司服务态度很好	-11.5212
冰淇淋	-11.5212
霸王条款	-11.5212
·	-11.5212
宏基	-11.5212
恶意	-11.5212
▁尊敬的客人	-11.5212
平安	-11.5212
争取	-11.5212
爱德华	-11.5212
led	-11.5212
做工很精细	-11.5213
的眼光	-11.5213
修复	-11.5213
更可气的是	-11.5213
完备	-11.5213
VIP	-11.5213
向往	-11.5213
▁关于携程	-11.5214
鲜花	-11.5214
业余	-11.5214
挺流畅的	-11.5214
不愧为	-11.5214
体系	-11.5215
黑暗	-11.5215
薄款	-11.5215
泡沫丰富	-11.5215
报价	-11.5215
交通不便	-11.5216
交通也方便	-11.5216
门面	-11.5217
做工很精致	-11.5218
安装系统	-11.5218
移动硬盘	-11.5218
50%	-11.5218
感觉就是	-11.5219
办理入住手续	-11.522
行李生	-11.522
的女人	-11.5221
食用	-11.5222
再加	-11.5223
5、6	-11.5224
耐看	-11.5224
没注意	-11.5225
京东物流就是快	-11.5225
反应太慢	-11.5226
刷机	-11.5226
五百	-11.5226
不会出现	-11.5227
说过	-11.5227
有些人	-11.5227
▁物有所值	-11.5227
试用了一下	-11.5229
也够	-11.523
三毛	-11.523
下榻	-11.5232
听起来	-11.5232
京东自营的东西	-11.5232
总体还行	-11.5233
冲动	-11.5233
就不多说了	-11.5233
购入	-11.5234
一团	-11.5234
房间空调	-11.5235
谢谢店家	-11.5235
收到货了	-11.5237
老婆很喜欢	-11.5238
颜色好看	-11.5238
希望能够	-11.5239
折磨	-11.524
乱七八糟的	-11.524
难装	-11.5241
读取	-11.5241
卖点	-11.5241
一进房间	-11.5241
去那里	-11.5241
皱巴巴的	-11.5242
见面	-11.5243
没区别	-11.5244
今天早上就到了	-11.5244
友好	-11.5245
回应	-11.5245
专用	-11.5245
偏贵	-11.5245
京东买	-11.5246
平方米	-11.5248
执着	-11.5248
不给发票	-11.5251
晚上回来	-11.5251
菜市场	-11.5251
洗了两次	-11.5253
一张床	-11.5255
我有	-11.5255
就是有点贵	-11.5255
接机服务	-11.5255
▁前台服务	-11.5256
配备了	-11.5257
驱动程序	-11.5258
904	-11.5259
终于在	-11.5259
旧了	-11.526
慢了点	-11.526
这样的房间	-11.5262
▁蒙牛的	-11.5262
的文章	-11.5263
▁白色	-11.5265
系统是	-11.5265
先前	-11.5266
看起来还不错	-11.5267
▁老板	-11.5269
了两个	-11.5273
51	-11.5273
▁非常不错的酒店	-11.5274
拆封	-11.5276
看小说	-11.5276
太黑了	-11.5277
感人	-11.5277
到时候	-11.5277
换的	-11.528
▁京东商城	-11.528
大问题	-11.5281
名人	-11.5281
相片	-11.5282
外部环境	-11.5282
联系我们	-11.5283
催促	-11.5287
人气	-11.5288
不要脸	-11.5288
再看看	-11.5291
手机里	-11.5291
那么久	-11.5291
屏幕的	-11.5293
下单的	-11.5294
▁家里	-11.5294
会回购	-11.5295
很好很好	-11.5295
可以买	-11.5296
永远是	-11.5297
还可以接受	-11.5297
心理学	-11.5298
还不承认	-11.53
有点厚	-11.53
态度也很好	-11.5303
插口	-11.5306
吃得	-11.5306
完毕	-11.5307
▁平板不错	-11.5307
直接扔了	-11.5308
一直信赖	-11.531
第一时间	-11.531
没见过	-11.531
泪	-11.5311
苹果很小	-11.5312
都是在	-11.5312
老大	-11.5314
被套	-11.5315
可以到	-11.5316
还是很满意的	-11.5318
不开空调	-11.5319
效果还不错	-11.5322
苹果小	-11.5323
对于我	-11.5325
但没有	-11.5326
140	-11.5326
这一套	-11.533
播放功能	-11.5334
住了三天	-11.5335
以后再	-11.5336
类的	-11.5338
通道	-11.5338
人品	-11.5338
还不甜	-11.5339
卡死了	-11.534
检查一下	-11.5342
屋内	-11.5342
的兴趣	-11.5343
放冰箱	-11.5343
旁边就是	-11.5345
已是	-11.5346
风景不错	-11.5346
坑啊	-11.5347
的性格	-11.5347
可惜的是	-11.5348
找人	-11.5348
会在	-11.5348
比苹果	-11.5348
惯	-11.5348
▁广告	-11.5349
追评	-11.535
没发票	-11.5351
安静的	-11.5351
不太适合	-11.5352
快递快	-11.5353
两个小时	-11.5353
质量没的说	-11.5355
。2,	-11.5356
华为产品	-11.5356
这不	-11.5357
电视节目	-11.5359
发霉的	-11.536
拒绝蒙牛	-11.5361
试用了	-11.5361
太老了	-11.5362
这种苹果	-11.5363
买了两件	-11.5363
看起	-11.5365
的嫌疑	-11.5365
对她	-11.5366
基本不	-11.5367
苹果好吃	-11.5367
为自己	-11.5368
带来的	-11.5368
特别棒	-11.5371
消费了	-11.5372
反正我是	-11.5374
都市	-11.5375
打着	-11.5376
下来了	-11.5377
有过	-11.5379
▁我也是醉了	-11.538
个儿	-11.5383
买到假货	-11.5386
▁酒店位置很好	-11.5386
酒店提供	-11.5387
两间	-11.5389
两年	-11.539
影响休息	-11.539
有兴趣	-11.5391
篇幅	-11.5392
问好	-11.5394
趣味性	-11.5395
小米平板	-11.5395
京东给力	-11.5397
这几年	-11.5398
袜子	-11.5398
看评论	-11.5399
可以免费上网	-11.5401
强烈的	-11.5403
居然在	-11.5404
程	-11.5405
并未	-11.5407
太给力了	-11.5408
感觉像是	-11.5409
酒店班车	-11.5411
在国内	-11.5411
▁1)	-11.5411
850	-11.5412
天左右	-11.5415
无线上网	-11.5415
今天上午	-11.5416
个体	-11.5418
秋	-11.5419
很模糊	-11.542
入住时间	-11.542
有什么区别	-11.5423
内容也	-11.5423
和我们	-11.5426
换了一个	-11.5427
一路上	-11.5427
还可	-11.5427
速度不错	-11.5429
酒店的早餐	-11.543
很全	-11.5431
评论了	-11.5432
漏光	-11.5435
华为的东西	-11.5436
年了	-11.5436
▁第	-11.5439
也不好用	-11.5439
▁没发票	-11.5439
▁第二次入住	-11.544
啥都没有	-11.544
上网速度	-11.5443
他自己	-11.5443
推荐大家购买	-11.5445
▁个头小	-11.5446
▁超	-11.5447
▁裤子收到	-11.5447
真的很好用	-11.5448
不想说了	-11.5448
众	-11.5451
善良	-11.5456
离谱	-11.5459
最为	-11.5459
两只	-11.5459
比京东	-11.546
苹果很好吃	-11.5461
毛毛	-11.5462
充满了	-11.5463
不已	-11.5466
也很安静	-11.5469
做不到	-11.547
380	-11.5473
拿的	-11.5473
速度超快	-11.5474
535	-11.5474
发白	-11.5478
▁住的是	-11.5478
的习惯	-11.5479
地理位置优越	-11.548
万像素的	-11.548
挺脆的	-11.5481
出现过	-11.5482
又小又	-11.5484
机票	-11.5485
香蕉	-11.5486
1500	-11.5487
!@	-11.5489
再也不会	-11.549
特别好用	-11.5491
要换	-11.5493
购了	-11.5494
层的	-11.5495
越来越差了	-11.5496
标明	-11.5497
问前台	-11.5499
烂了两个	-11.55
不回复	-11.5501
环境差	-11.5503
金融	-11.5504
不差	-11.5504
还用	-11.5506
买贵了	-11.5508
一早	-11.5508
以前用过	-11.5509
希望好用	-11.551
▁太大了	-11.551
要是能	-11.5511
推荐入住	-11.5512
非常非常	-11.5513
其他品牌	-11.5515
腻	-11.5516
▁班尼路	-11.5516
残次品	-11.5516
血迹	-11.5517
他家的	-11.5517
▁此书	-11.5518
也很满意	-11.5518
的商家	-11.5519
不多说	-11.5519
才收到货	-11.552
在床上	-11.552
吸引我	-11.5521
▁客房	-11.5522
的风景	-11.5526
反应很快	-11.5526
送机	-11.5527
也没送	-11.5527
能做到	-11.5528
ps	-11.5531
特别痒	-11.5531
一次性的	-11.5532
▁很漂亮	-11.5532
不错的平板	-11.5533
呗	-11.5533
来读	-11.5536
在京东上	-11.5537
芯片	-11.554
商务机	-11.554
分了	-11.5542
季	-11.5542
还这么贵	-11.5542
▁房间还可以	-11.5544
酒店环境	-11.5545
外卖	-11.5545
就这个	-11.5546
虽然说	-11.5547
内在	-11.555
还给	-11.555
才来	-11.555
现在看来	-11.5553
差别很大	-11.5553
日晚上	-11.5554
稍差	-11.5556
▁帮	-11.5557
挂羊头卖狗肉	-11.5557
只给	-11.5558
▁预装	-11.556
洗了一下	-11.556
▁物流挺快的	-11.5562
京东你	-11.5564
条裤子	-11.5566
买吧	-11.5566
很多头皮屑	-11.5567
到这里	-11.5568
也很小	-11.5569
总的感觉	-11.5569
▁还没开始用	-11.557
从事	-11.5573
再来追评	-11.5573
不顺	-11.5574
该有的	-11.5574
书里面	-11.5574
已经坏了	-11.5576
的房子	-11.558
▁酒店不错	-11.5581
搞不懂	-11.5584
所在	-11.5584
译	-11.5585
选购	-11.5587
不良	-11.5587
重要的事情说三遍	-11.5587
会死机	-11.5591
下午就送到了	-11.5592
没感觉	-11.5593
房间空间	-11.5593
庐山	-11.5594
温柔	-11.5594
内置的	-11.5594
溢	-11.5595
华圣苹果	-11.5595
一键	-11.5597
的床	-11.5601
超级快	-11.5602
设有	-11.5602
不咋滴	-11.5603
卖家服务态度很好	-11.5606
吃的东西	-11.5607
还是会	-11.5609
该酒店的	-11.5609
浦东机场	-11.5609
服务很热情	-11.5609
性价比低	-11.5613
塑料袋	-11.5613
更小	-11.5614
小号	-11.5614
不适	-11.5614
彩色	-11.5615
稍有	-11.5616
将就	-11.5618
蛋糕	-11.5619
没多久	-11.5621
千万别住	-11.5623
太不	-11.5624
华为客服	-11.5624
▁买了三个	-11.5625
相关的	-11.5626
指纹收集器	-11.5628
给我一个	-11.5628
4999	-11.5629
包装完好无损	-11.563
的命运	-11.563
屏幕色彩	-11.5631
这么个	-11.5633
打电话过去	-11.5634
感觉不到	-11.5638
就不是	-11.564
3000	-11.5642
没人管	-11.5643
▁性能不错	-11.5643
公共	-11.5646
尝	-11.5646
那家	-11.5648
看了一遍	-11.5648
给客户	-11.5649
兑	-11.5651
不敢用了	-11.5651
凶	-11.5651
办公室	-11.5653
没有吹风机	-11.5654
下次还	-11.5655
用沙宣	-11.5656
口感不好	-11.5657
男主角	-11.5659
福州	-11.566
刚刚收到	-11.5661
弥补了	-11.5661
不错了	-11.5662
虽然不	-11.5665
稍显	-11.5666
环境还可以	-11.5667
汉字	-11.5667
一直在京东买东西	-11.5669
凑单	-11.5669
不够好	-11.567
贝拉	-11.5674
什么都不送	-11.5674
动静	-11.5676
退钱	-11.5676
摩	-11.5678
牵强	-11.5683
烟台红富士	-11.5684
的菜	-11.5684
款式漂亮	-11.5684
不太新鲜	-11.5685
买了两个	-11.5686
非常值得	-11.5686
▁苹果很好	-11.5687
总体来说还不错	-11.569
烂掉的	-11.569
想要的	-11.5691
赠品也	-11.5691
柜子	-11.5693
是不会	-11.5693
座位	-11.5694
歪瓜裂枣	-11.5694
沙宣的	-11.5695
黑点	-11.5695
外包	-11.5698
大热天	-11.5698
看了之后	-11.5699
大学生	-11.5699
象是	-11.57
迟	-11.57
宿舍	-11.57
原以为	-11.5701
范	-11.5701
厉害了	-11.5701
知道了	-11.5703
▁真心不错	-11.5704
只能算	-11.5705
05	-11.5706
渠道	-11.5706
采	-11.5706
早餐很差	-11.5707
▁收到后	-11.5707
当场	-11.5708
到一半	-11.5709
还以为是	-11.571
我本人	-11.571
所有人	-11.5713
比较实用	-11.5713
区分	-11.5713
同等	-11.5713
高手	-11.5716
可以给	-11.5721
指纹解锁	-11.5723
不知道好不好	-11.5724
苹果的	-11.5725
新书	-11.5726
还有几个	-11.5726
每天都要	-11.573
展	-11.5731
黑了	-11.5732
套路	-11.5732
在当当	-11.5733
效	-11.5734
我跟	-11.5738
给出	-11.5738
比想象中	-11.5739
的价值	-11.5739
▁一直在京东买	-11.5742
前两次	-11.5743
毁	-11.5745
面料舒适	-11.5747
创造	-11.5747
赛	-11.5748
不换	-11.5749
脱色	-11.5749
667	-11.5751
糙	-11.5753
服务都	-11.5754
的一款	-11.5755
增强	-11.5756
酒店方面	-11.5756
有点松	-11.5756
条件一般	-11.5756
我非常满意	-11.5757
诚恳	-11.5757
敬业	-11.5757
的作用	-11.5757
我要求	-11.5757
打扰	-11.5758
岁月	-11.5758
小学生	-11.5759
是漏的	-11.576
的酒店了	-11.576
次购买了	-11.576
打死	-11.5761
速度挺快的	-11.5762
出游	-11.5765
很普通	-11.5767
09	-11.5769
的话就	-11.5769
成分	-11.577
脏的	-11.577
芒果	-11.577
钢琴	-11.5772
可以上网	-11.5772
回到酒店	-11.5772
校	-11.5774
很闷	-11.5776
看看电影	-11.5777
续住	-11.5778
目标	-11.5782
商品质量	-11.5783
他就	-11.5783
特殊	-11.5786
▁穿着很舒服	-11.5787
隔天到	-11.5791
还比较	-11.5791
受益	-11.5791
饮	-11.5792
看完这本书	-11.5793
灾难	-11.5793
▁一箱	-11.5794
周日	-11.5794
壁	-11.5795
我用了	-11.5796
兴	-11.5796
紫	-11.5796
三四天	-11.5797
是不错的选择	-11.5798
我同事	-11.5799
开始就	-11.5804
Fi	-11.5805
镇	-11.5806
觉得还可以	-11.5807
私	-11.5807
也很棒	-11.5808
质量非常不错	-11.5809
丢脸	-11.581
忠	-11.581
牙刷	-11.581
孔子	-11.5812
签单	-11.5814
选择京东	-11.5814
控	-11.5815
自杀	-11.5815
我的订单	-11.5816
糊	-11.5816
戴	-11.5817
右下角	-11.5818
挡	-11.5818
枯	-11.5819
极大	-11.5819
长毛了	-11.5819
吴	-11.5819
只剩	-11.582
庆幸	-11.582
品控	-11.5821
不适应	-11.5822
适配器	-11.5822
愈	-11.5822
到目前为止	-11.5822
娘	-11.5824
谢谢卖家	-11.5824
珠	-11.5824
▁京东生鲜	-11.5825
电信	-11.5825
移	-11.5826
迟钝	-11.5827
夫妻	-11.5828
长久	-11.5828
不成	-11.5828
就是感觉	-11.5828
喜悦	-11.5829
放弃了	-11.5829
梁	-11.5829
乌	-11.5829
相差甚远	-11.5829
坊	-11.583
你这	-11.583
谷	-11.583
吵架	-11.583
旺季	-11.583
宁静	-11.5831
一个礼拜	-11.5831
优良	-11.5831
好歹	-11.5832
完整的	-11.5832
Windows	-11.5832
滚	-11.5833
丁	-11.5833
医学	-11.5833
WIN	-11.5834
立体	-11.5834
再追评	-11.5835
奖励	-11.5835
奔	-11.5835
孕妇	-11.5835
游览	-11.5835
警察	-11.5836
胎	-11.5836
备注	-11.5836
透彻	-11.5837
冤	-11.5837
呼吸	-11.5837
剁手	-11.5837
三分之一	-11.5837
吖	-11.5837
慎买	-11.5837
opy	-11.5837
考验	-11.5837
重要的事说三遍	-11.5837
▁诚聘英	-11.5837
intel	-11.5837
么么哒	-11.5837
紧邻	-11.5837
咱们	-11.5837
极端	-11.5837
鸡翅	-11.5837
饮用	-11.5837
去屑效果好	-11.5837
香甜可口	-11.5837
兆	-11.5837
传奇	-11.5837
CCD	-11.5838
原著	-11.5838
亏大了	-11.5838
死亡	-11.5838
战略	-11.5838
入主	-11.5838
洗脸盆	-11.5838
申通快递	-11.5838
古典	-11.5838
1999-200	-11.5838
回归	-11.5839
山景房	-11.5839
热情周到	-11.5839
分享自	-11.5839
电源线	-11.584
吃完再买	-11.584
江南	-11.584
包装也好	-11.584
锁屏	-11.5841
家庭教育	-11.5841
昨天下午下单	-11.5841
脆甜可口	-11.5841
浅显易懂	-11.5841
MMS	-11.5842
都流出来了	-11.5842
15%	-11.5842
金属质感	-11.5842
偏低	-11.5843
得要死	-11.5843
价格也合适	-11.5843
很有礼貌	-11.5843
放不下	-11.5844
价格也合理	-11.5844
穿起来很合身	-11.5844
心痛	-11.5844
发现是	-11.5844
房间地毯	-11.5845
冰依	-11.5845
朋友很喜欢	-11.5845
著	-11.5846
GPS	-11.5846
然后在	-11.5846
当即	-11.5846
呈现	-11.5848
过了几天	-11.5848
照相功能	-11.5849
;6、	-11.5849
严密	-11.585
那句	-11.585
环境优美	-11.5852
某种	-11.5852
个头比较小	-11.5853
穷	-11.5855
一点都不卡	-11.5857
用自己的	-11.5858
挺小的	-11.5859
拿到手里	-11.586
特别划算	-11.5861
感觉上	-11.5862
又大	-11.5862
有弹力	-11.5862
心思	-11.5862
▁宝贝已经收到	-11.5863
外滩	-11.5863
态度极差	-11.5863
▁订的	-11.5866
结果没有	-11.5866
穿上舒服	-11.5866
服务上	-11.5866
电话费	-11.5869
如果想	-11.587
发货也很快	-11.587
如果在	-11.5871
降到	-11.5872
在这个价位	-11.5872
59	-11.5872
用起来很舒服	-11.5873
漏出来	-11.5874
设施差	-11.5874
日记	-11.5875
分类	-11.5879
连上	-11.5882
直接说	-11.5882
看不清楚	-11.5882
好几年了	-11.5882
设施很旧	-11.5882
是有的	-11.5883
也不便宜	-11.5883
外企	-11.5886
过时	-11.5889
色彩鲜艳	-11.5889
;5.	-11.589
感觉没有	-11.5891
房号	-11.5892
湾	-11.5892
心意	-11.5893
领取	-11.5895
蛮不错的	-11.5896
投入	-11.5897
太远	-11.5898
都无法	-11.59
质量没得说	-11.59
用信用卡	-11.5902
好听	-11.5904
款式也不错	-11.5905
仔细看	-11.5908
太次	-11.5909
硬是	-11.5909
家人很喜欢	-11.5909
我要的是	-11.591
不光	-11.5914
有差别	-11.5916
的噪音	-11.5916
以内	-11.5916
坑爹	-11.5918
过度	-11.5921
个头一般	-11.5921
功能也	-11.5921
▁穿着舒服	-11.5922
太长	-11.5923
应该没问题	-11.5924
质量挺好	-11.5926
这家店的	-11.5927
大道	-11.5927
比较便宜	-11.5927
国外的	-11.5928
对我说	-11.5928
很大气	-11.5929
就是要	-11.5929
这时候	-11.593
单人	-11.5932
送货也很快	-11.5933
颗粒感	-11.5935
用完之后	-11.5935
!!!!!!!!!!	-11.5936
很显瘦	-11.5937
没有提供	-11.5937
的推荐	-11.5939
来着	-11.594
打电话询问	-11.594
用处	-11.5942
图便宜	-11.5943
讲述了	-11.5943
拍照片	-11.5943
垃圾京东	-11.5943
只支持	-11.5943
家中	-11.5944
我们要	-11.5944
短信功能	-11.5944
经历过	-11.5945
书评	-11.5946
卖家服务	-11.5946
服务也很周到	-11.5947
▁代理	-11.5947
能感觉到	-11.5949
不显示	-11.5949
这部书	-11.595
涉及	-11.595
1300	-11.595
掉颜色	-11.5951
装好了	-11.5951
同价位	-11.5952
很长	-11.5955
时间比较长	-11.5956
怎么说呢	-11.5956
还特别	-11.5957
▁个人感觉	-11.5957
交通非常方便	-11.5957
怎么能	-11.5959
96	-11.5959
处理的	-11.596
没有光驱	-11.596
效果还可以	-11.596
不管你	-11.5962
是大	-11.5962
全都是	-11.5964
一千多	-11.5964
一点都不好吃	-11.5965
中间的	-11.5966
一个坏的	-11.5966
房间大小	-11.5966
做工也	-11.5967
不如以前	-11.597
有点乱	-11.5974
够买	-11.5975
教育孩子	-11.5975
华硕的	-11.5976
带走	-11.5977
上帝	-11.5979
一下买了	-11.5981
感觉和	-11.5982
移动的	-11.5983
后边	-11.5985
▁便宜没好货	-11.5986
▁我也	-11.5988
慢的要死	-11.5992
的硬盘	-11.5993
前的	-11.5994
而我	-11.5994
应对	-11.5994
2015	-11.5996
用后再来评价	-11.5997
货色	-11.5997
很陈旧	-11.5997
为什么我	-11.5998
几天了	-11.5999
的温度	-11.6
料子不错	-11.6001
整晚	-11.6001
脏脏的	-11.6002
中学生	-11.6011
讲故事	-11.6012
得不行	-11.6015
个烂的	-11.6017
我估计	-11.602
有一瓶	-11.6022
不过在	-11.6024
越是	-11.6024
不知道是不是真的	-11.6024
效果一般	-11.6025
这件	-11.6027
▁大家	-11.6028
生态	-11.6029
死人	-11.603
回答是	-11.603
小清新	-11.6032
久了	-11.6035
京东快递员	-11.6036
个不大	-11.6038
.1.	-11.6038
检验	-11.6039
反映了	-11.604
▁装系统	-11.604
和图片上	-11.6042
挺干净的	-11.6042
难忘	-11.6044
er	-11.6047
▁第二次买	-11.6048
买了以后	-11.6049
给五星好评	-11.6051
▁right	-11.6051
极佳	-11.6052
镇上	-11.6052
我之前	-11.6053
的条件	-11.6054
我先	-11.6055
是如何	-11.6055
还是觉得	-11.6055
最爱	-11.6059
做工好	-11.6063
吃一个	-11.6064
早餐的	-11.6064
▁值得购买	-11.6066
住进	-11.6066
▁4999	-11.6067
129	-11.6068
再住	-11.6068
大家都说	-11.6068
三星级酒店	-11.607
这块	-11.6072
明了	-11.6072
▁xp	-11.6076
▁硬盘	-11.6079
声音大	-11.608
回到家	-11.608
最好是	-11.6084
拿行李	-11.6084
▁环境一般	-11.6086
的套房	-11.6087
两个房间	-11.6088
款式时尚	-11.6089
都还好	-11.6089
我找	-11.6093
完成了	-11.6095
红富士苹果	-11.6095
气泡	-11.6095
调到	-11.6097
破的	-11.6097
不来	-11.6098
会自动	-11.61
维修站	-11.6102
好多头皮屑	-11.6103
还是烂的	-11.6103
虽是	-11.6104
想买的	-11.6104
还是有点贵	-11.6105
摔过	-11.6107
后壳	-11.6108
小动物	-11.6108
你们家	-11.6109
第二天到	-11.6113
再也不买	-11.6115
不完善	-11.6116
手机中	-11.6116
服务水准	-11.6117
送来的时候	-11.6119
什么的都	-11.6119
更快	-11.6121
下回	-11.6123
的精神	-11.6123
这种东西	-11.6124
小伙子	-11.6126
出去了	-11.6128
想看看	-11.6129
能吃	-11.6131
没去	-11.6132
爱上	-11.6132
比这	-11.6132
严重的	-11.6133
都很差	-11.6135
钱了	-11.6137
宜	-11.6138
▁ctrip	-11.614
今天就降价	-11.6144
电话卡	-11.6144
白的	-11.6145
大部分都是	-11.6151
质量都很好	-11.6154
电池续航能力	-11.6155
点吗	-11.6155
有趣的	-11.6155
甜度	-11.6157
的人都	-11.6157
快递速度很快	-11.616
投诉了	-11.6161
深感	-11.6162
是想	-11.6165
最失败的一次购物	-11.6165
旋转餐厅	-11.6165
声明	-11.6166
注意了	-11.6167
把手机	-11.6168
或者说	-11.6168
门卡	-11.6169
小气	-11.6169
建议携程	-11.6172
你还	-11.6174
不够用	-11.6174
穿了几天	-11.6177
很乱	-11.6177
▁我只能说	-11.6178
买完就降价	-11.6178
透明的	-11.6178
▁还好吧	-11.6183
刚买就降价	-11.6183
前段时间	-11.6186
没法穿	-11.6187
五分钟	-11.6189
相比较	-11.6189
高价	-11.6189
也很新鲜	-11.619
再换	-11.6191
小很多	-11.6197
搬到	-11.6197
品味	-11.6199
金钱	-11.6204
冷漠	-11.6205
▁房间还不错	-11.6205
之前我	-11.6206
也够用了	-11.6207
裤子上	-11.6209
买了这个	-11.6209
赚了	-11.6213
牛仔	-11.6214
开封	-11.6214
!2.	-11.6215
▁这酒店	-11.6216
屏大	-11.6219
在广州	-11.6223
樱花	-11.6223
凉快	-11.6223
最差的酒店	-11.6223
过夜	-11.6224
能让	-11.6225
也好看	-11.6225
买一本	-11.6226
环境也	-11.6227
来这里	-11.6227
把东西	-11.6229
▁待机时间短	-11.6229
差距很大	-11.6231
封条	-11.6231
芯片组	-11.6232
帮朋友买的	-11.6233
间的	-11.6233
▁这本书是	-11.6234
餐券	-11.6234
6.	-11.6235
的乐趣	-11.6235
水分也	-11.6237
停了	-11.6238
却有	-11.6238
但很干净	-11.6239
静音	-11.624
的一生	-11.624
洗澡的时候	-11.624
看下去	-11.6241
这种服务	-11.6242
就掉了	-11.6242
有吹风机	-11.6244
附带的	-11.6244
点以后	-11.6245
这都	-11.625
投诉后	-11.6251
因素	-11.6252
加钱	-11.6252
点东西	-11.6254
ThinkPad	-11.6254
没窗户	-11.6254
国产机	-11.6256
我非常喜欢	-11.6258
追加	-11.626
下次继续购买	-11.6261
半个月了	-11.6262
价钱也	-11.6263
也不卡	-11.6264
一眼	-11.6265
阳朔	-11.6265
个个都	-11.6265
▁17	-11.6265
很感兴趣	-11.6266
▁好像	-11.6267
有坏点	-11.6268
止	-11.6268
使人	-11.627
饭店的	-11.627
性价比非常高	-11.627
洗的时候	-11.6271
读完了	-11.6272
条件不错	-11.6273
为什么会	-11.6275
电源适配器	-11.6275
小事	-11.6275
严重掉色	-11.6276
易懂	-11.6277
太简单	-11.6278
208	-11.6279
但这	-11.6279
right	-11.6279
▁京东自营的	-11.628
几页	-11.6281
送水果	-11.6281
盆	-11.6282
两份	-11.6283
▁7.	-11.6283
走的	-11.6287
不太大	-11.6288
要便宜	-11.6288
还是这样	-11.6288
以后还会光顾	-11.629
还会买	-11.629
很简陋	-11.6291
付款后	-11.6292
什么都没	-11.6295
。。。。。。。。。。。。。。。。	-11.6297
的标志	-11.6299
红的	-11.6302
买到假货了	-11.6303
动人	-11.6303
厚道	-11.6304
真坑	-11.6305
高的	-11.6305
两套	-11.6307
较低	-11.6307
光滑	-11.6308
还好我	-11.6309
补差价	-11.6309
不会再住	-11.631
房间挺大	-11.6312
积累	-11.6313
几乎都	-11.6314
他们也	-11.6314
起头屑	-11.6315
分吧	-11.6315
有质量问题	-11.6318
进口	-11.6318
换装	-11.632
送耳机	-11.6322
怎么不	-11.6323
做一个	-11.6323
只要你	-11.6323
今天收到	-11.6324
坏掉	-11.6324
我都不知道	-11.6325
有色差	-11.6325
高度	-11.6325
不行了	-11.6326
▁无	-11.6326
转了	-11.6327
个个	-11.6331
可以穿	-11.6331
一瓶洗发水	-11.6331
用完头发	-11.6334
不紧	-11.6336
散热很好	-11.6337
目录	-11.6337
上网速度快	-11.6337
应有的	-11.6338
▁服务差	-11.6338
因为没有	-11.634
长按	-11.6341
水多	-11.6343
▁当时	-11.6344
再多	-11.6347
就是这样的	-11.6347
还是去	-11.6349
寻	-11.635
自家	-11.6352
还很	-11.6352
重了点	-11.6353
嫌疑	-11.6354
的费用	-11.6355
也不知道是	-11.6357
给我发的	-11.6357
!3、	-11.6358
▁宾馆	-11.6358
不严	-11.636
两块	-11.6361
收到时	-11.6362
第一次在网上买	-11.6362
未能	-11.6363
的细节	-11.6364
服务也可以	-11.6364
苹果有点小	-11.6364
▁非常好吃	-11.6367
绝对不是	-11.6368
电板	-11.6368
户外	-11.6368
而且不是	-11.6371
六天	-11.6372
五天	-11.6373
影音	-11.6373
就是一	-11.6374
这个房间	-11.6374
j	-11.6377
不要被	-11.6377
别致	-11.6379
吃早餐	-11.638
有礼貌	-11.638
更多的是	-11.6381
▁系统流畅	-11.6382
来得	-11.6383
在网上买	-11.6384
看在	-11.6384
▁看图	-11.6384
都是些	-11.6384
我不会	-11.6385
▁mini	-11.6385
居然还是	-11.6386
散热不错	-11.6387
读来	-11.6389
本酒店	-11.6389
很顺	-11.639
英	-11.639
扎实	-11.639
很不错了	-11.6391
童	-11.6394
不是真的	-11.6395
甚至连	-11.6395
等候	-11.6395
也只是	-11.6396
隔开	-11.6397
▁USB	-11.6397
凡	-11.64
晚上有	-11.64
不新鲜了	-11.64
上不去	-11.6402
▁买的是	-11.6404
岁的	-11.6406
都比较	-11.6406
酒店中	-11.6409
才送来	-11.6409
东北	-11.641
公交车	-11.6411
酒店附近	-11.6412
前台的服务态度	-11.6413
报警	-11.6413
▁不是很好	-11.6413
续航时间	-11.6415
自身的	-11.6416
又没	-11.6418
太重了	-11.6419
家的感觉	-11.642
对酒店	-11.6423
相似	-11.6423
的社会	-11.6424
效果也不错	-11.6426
日常生活	-11.6426
会让你	-11.6427
那么高	-11.6428
楼顶	-11.6429
一脸	-11.6429
但是这个	-11.6429
还大	-11.6429
第二天就降价	-11.643
我不喜欢	-11.6431
用了不到	-11.6432
幼儿园	-11.6433
很多朋友	-11.6434
7.	-11.6435
开机时	-11.6435
下午茶	-11.6436
还有人	-11.6436
发布	-11.6437
▁快递小哥	-11.6438
点才	-11.6438
柜	-11.6438
四星标准	-11.6441
最让我	-11.6441
折叠	-11.6442
就剩	-11.6443
一个人住	-11.6443
环	-11.6444
绝对不会	-11.6444
基本都	-11.6446
霸气	-11.6447
的家庭	-11.6447
成这样	-11.6449
安慰	-11.6449
厚重	-11.645
第二本	-11.6452
的音乐	-11.6452
55	-11.6452
没有发现	-11.6453
下载了	-11.6453
峰	-11.6454
太晚	-11.6456
多块钱	-11.6458
的标间	-11.6458
用了两次	-11.6458
走廊里	-11.6459
味道可以	-11.646
不知道是什么	-11.6464
颗粒	-11.6465
管理层	-11.6465
沙宣洗发水	-11.6466
送货速度很快	-11.6468
。3,	-11.6468
狭小	-11.647
洲际	-11.6471
根本不一样	-11.6472
很厚实	-11.6473
授权	-11.6474
时常	-11.6474
才来评论	-11.6475
安排了	-11.6476
之嫌	-11.6478
同志	-11.6479
的画面	-11.6479
宫	-11.648
辞	-11.6482
智商	-11.6482
以后不买了	-11.6484
工程师	-11.6484
气质	-11.6484
梳	-11.6485
欧	-11.6485
国内的	-11.6486
国美	-11.6486
忧	-11.6486
机器的	-11.6486
亿	-11.6487
春秋	-11.6487
娃	-11.6487
闻起来	-11.6488
费电	-11.6488
掉价	-11.649
要注意了	-11.6491
肠	-11.6492
孙	-11.6493
是一款	-11.6493
▁货收到	-11.6493
没味道	-11.6493
煲	-11.6494
解锁	-11.6494
跟超市	-11.6495
通俗易懂	-11.6495
贱	-11.6495
取景	-11.6496
今天上午就到了	-11.6496
雾	-11.6497
便于	-11.6497
穿起来也	-11.6498
危机	-11.6498
虎	-11.6498
鼠	-11.6499
父	-11.6499
想不通	-11.6499
杆	-11.6499
孙寅贵	-11.65
欣慰	-11.65
宋	-11.6501
保险	-11.6501
开箱验货	-11.6501
摩托	-11.6501
讽刺	-11.6501
丰	-11.6501
纪念	-11.6501
为止	-11.6502
浮	-11.6502
CDMA	-11.6502
魔	-11.6502
桂林	-11.6502
特惠	-11.6502
败笔	-11.6502
尿	-11.6502
在我看来	-11.6502
伊	-11.6503
伤害	-11.6503
弯曲	-11.6503
条形码	-11.6503
隐私	-11.6503
麦	-11.6503
黏	-11.6503
休闲裤	-11.6503
上不了网	-11.6503
大家别买	-11.6503
筒	-11.6503
都喜欢	-11.6503
花样	-11.6503
酱	-11.6503
目测	-11.6503
抬头	-11.6503
红外接口	-11.6503
复习	-11.6503
扫描	-11.6503
祝店家生意兴隆	-11.6504
sony	-11.6504
同志们	-11.6504
dell	-11.6504
夜宵	-11.6504
狗屎	-11.6504
指引	-11.6504
Java	-11.6504
://	-11.6504
求医不如求己	-11.6504
有问必答	-11.6504
半个多小时	-11.6504
无趣	-11.6504
偷偷	-11.6505
电瓶车	-11.6505
运存	-11.6505
凌乱	-11.6505
RMB	-11.6505
感恩	-11.6505
3、4	-11.6505
总的说来	-11.6505
渐渐	-11.6505
物流也给力	-11.6505
沉默	-11.6506
负面	-11.6506
各项	-11.6506
一律	-11.6506
草原	-11.6506
公众	-11.6507
通信	-11.6507
干瘪	-11.6507
菜鸟	-11.6507
▁果然	-11.6508
大小合身	-11.6508
几十块	-11.6508
买回来就	-11.6508
液晶屏	-11.6508
你们是	-11.6509
还是可以接受的	-11.6509
穿不上	-11.6509
帮他	-11.6509
泰山	-11.6509
坐飞机	-11.651
苦苦	-11.651
身边的人	-11.651
9:30	-11.651
极力推荐	-11.6511
苹果不错	-11.6512
高音	-11.6512
宽带免费	-11.6513
必须给差评	-11.6513
夜总会	-11.6513
元素	-11.6513
容易留指纹	-11.6514
白领	-11.6514
看一看	-11.6515
出行方便	-11.6515
号才到	-11.6516
板子	-11.6516
了解了	-11.6516
星级的酒店	-11.6517
的电池	-11.6518
设施老旧	-11.6518
食品安全	-11.6519
不妨	-11.6519
男的	-11.652
实验	-11.652
推卸责任	-11.6521
花的	-11.6521
合适的	-11.6522
不过这次	-11.6522
不值这个钱	-11.6523
以便	-11.6523
两位	-11.6523
零食	-11.6523
评论的	-11.6524
奖品	-11.6524
封闭	-11.6528
疯了	-11.6528
很是喜欢	-11.6529
玩不了	-11.6529
失望透顶	-11.6529
面料也很好	-11.653
理由是	-11.6531
分辨率也	-11.6531
已签收	-11.6531
大雨	-11.6531
知名	-11.6532
地道	-11.6532
数码	-11.6532
态度差	-11.6533
太湖	-11.6533
我也是无语了	-11.6533
老实说	-11.6534
不适合我	-11.6535
穿上大小合适	-11.6537
之内	-11.6538
新手	-11.6538
的影子	-11.6538
太糟糕了	-11.6539
怎么想的	-11.6541
幻想	-11.6542
转发	-11.6545
核对	-11.6545
歉意	-11.6546
总体满意	-11.6548
我看了	-11.6549
特别大	-11.655
世界上	-11.6551
了么	-11.6551
在看	-11.6553
作者是	-11.6553
甚是	-11.6555
有帮助	-11.6555
希望你们	-11.6557
也不要	-11.6557
月亮	-11.6558
实际情况	-11.6559
不太干净	-11.656
微笑服务	-11.656
比较郁闷	-11.656
撒了	-11.6561
1600	-11.6561
有如此	-11.6563
总体评价	-11.6565
了呢	-11.6565
火大	-11.6565
有蓝牙	-11.6565
大些	-11.6566
比想象的好	-11.6566
个性化	-11.6567
计算	-11.6568
机构	-11.6569
拿过来	-11.6569
不存在	-11.6569
在线客服	-11.6569
出书	-11.657
后门	-11.6572
双屏	-11.6572
。。。。。。。。。。。	-11.6574
▁苹果太小	-11.6576
做过	-11.6577
还是很方便的	-11.6577
其他都不错	-11.6577
坚定	-11.6578
和弦的铃声	-11.6579
穿上很合适	-11.6581
在京东买水果了	-11.6581
补上	-11.6581
发黑	-11.6581
尝尝	-11.6581
好啊	-11.6584
了好几次	-11.6586
支持一下	-11.6588
大街	-11.6589
多少次	-11.659
一个样	-11.6592
对客户	-11.6592
苑	-11.6593
买小了	-11.6594
我定的是	-11.6597
留给	-11.6597
89	-11.6598
下次还会住	-11.6598
感觉上当了	-11.6598
国际酒店	-11.6599
认可	-11.6599
教学	-11.66
新装修过	-11.66
▁洗完头	-11.6603
车程	-11.6604
找了半天	-11.6604
手写输入	-11.6605
自提的	-11.6608
自己买	-11.6609
▁样式	-11.6609
内地	-11.6612
股	-11.6612
色彩艳丽	-11.6612
书里的	-11.6614
如果可以	-11.6615
可以买到	-11.6617
在其中	-11.6617
另外两个	-11.6618
不过感觉	-11.6619
天后	-11.662
这家了	-11.662
退房后	-11.6622
几点	-11.6623
奖	-11.6624
▁感觉不是正品	-11.6625
服务员也	-11.6626
性价比挺高的	-11.6629
送我	-11.663
6.5	-11.663
联系京东客服	-11.6631
大了点	-11.6632
相当差	-11.6632
户	-11.6634
都比不上	-11.6636
说他	-11.6636
爱理不理的	-11.6636
说一声	-11.6636
这件事	-11.6637
和她	-11.6637
手续	-11.6638
下雨天	-11.6639
一个一个	-11.664
的人们	-11.6642
看了以后	-11.6642
要了	-11.6642
惨了	-11.6642
沾	-11.6645
全部都	-11.6646
可以提供	-11.6646
最主要是	-11.6646
手机卡	-11.6647
万的	-11.6648
朋友推荐	-11.665
的意见	-11.6652
~~~~~	-11.6652
66	-11.6652
以此	-11.6652
jd	-11.6655
碎了	-11.666
前台的小姐	-11.6662
一系列	-11.6665
分钟路程	-11.6668
京东的水果	-11.6669
▁给朋友买的	-11.667
屏幕效果	-11.6671
干涩	-11.6671
放的	-11.6672
出现的	-11.6672
过多	-11.6674
还支持	-11.6675
让我感到	-11.6679
有班车	-11.6679
垃圾酒店	-11.668
交通也	-11.6681
▁绝对	-11.6685
IN	-11.6687
等方面	-11.6689
号入住	-11.6691
失去了	-11.6691
开裂	-11.6692
一行	-11.6693
共用	-11.6693
根本没法	-11.6695
不重	-11.6696
个工作日	-11.6696
这还是	-11.6697
生活中的	-11.6697
弄个	-11.6699
▁这就是	-11.6699
一不小心	-11.6703
名声	-11.6703
住得	-11.6703
用用看	-11.6704
还送货上门	-11.6706
▁vista	-11.6706
去住了	-11.6706
她是	-11.6707
弄好	-11.6708
做成	-11.6708
洗得	-11.6709
顺序	-11.6709
1.2	-11.671
很周到	-11.6711
超大的	-11.6711
▁原以为	-11.6714
二层	-11.6715
以后不再	-11.6717
也没人理	-11.6717
以后都	-11.6719
这儿	-11.6719
到不行	-11.6722
还没发现	-11.6724
▁发货快	-11.6724
▁水果很新鲜	-11.6724
▁房间很小	-11.6724
恋爱	-11.6724
的女子	-11.6726
于是就	-11.6727
面条	-11.6729
西方	-11.6729
过几次	-11.6731
事后	-11.6733
柚子	-11.6733
放在一起	-11.6734
星级的标准	-11.6734
翻新的	-11.6738
已经买了	-11.6739
虽然只有	-11.6743
特别卡	-11.6744
的眼睛	-11.6748
隔天	-11.6748
五星级的酒店	-11.6749
声音不错	-11.675
看起来很	-11.675
大型	-11.6753
烦人	-11.6754
透了	-11.6754
问问	-11.6761
不能理解	-11.6762
怎么处理	-11.6762
像素低	-11.6762
总之就是	-11.6762
给男朋友买的	-11.6762
那么大的	-11.6763
晕了	-11.6763
太一般	-11.6766
沉重	-11.6767
有用的	-11.6768
▁京东物流	-11.6769
大家注意	-11.6771
的智慧	-11.6771
白屏	-11.6773
的能力	-11.6774
▁一直用这个牌子	-11.6775
酒店的环境	-11.6777
▁待机时间	-11.6777
说我们	-11.6777
变了	-11.6778
优惠了	-11.6778
的理念	-11.6782
▁郁闷	-11.6783
怀疑是	-11.6787
费了	-11.6792
整体感觉不错	-11.6794
生日礼物	-11.6795
空调声音	-11.6796
总的	-11.6797
使用中	-11.6797
删了	-11.6797
看片	-11.6798
的场景	-11.6799
谨慎购买	-11.6799
那么多好评	-11.6799
消失	-11.68
包装很	-11.6801
严重不符	-11.6803
▁昨天买的	-11.6807
▁位置好	-11.6807
▁x	-11.6808
买来就	-11.6809
长度	-11.6809
▁非常一般	-11.6809
768	-11.681
遗	-11.681
和我的	-11.681
的地步	-11.6811
三瓶	-11.6811
▁潘婷	-11.6813
的价位	-11.6816
买的水果	-11.6817
这家宾馆	-11.6818
就只能	-11.6819
▁服务态度不好	-11.6826
但对于	-11.6829
一体	-11.6832
我老婆	-11.6835
知道的	-11.6836
▁漂亮	-11.6836
哪位	-11.6836
今早	-11.6842
房间卫生	-11.6843
邻居	-11.6843
真是垃圾	-11.6844
``	-11.6844
编写	-11.6846
188	-11.6848
KF	-11.685
纯牛奶	-11.685
▁苹果还不错	-11.685
问他	-11.685
显腿长	-11.6851
人生的	-11.6851
是脏的	-11.6851
▁送来	-11.6856
边上的	-11.6856
小本	-11.6857
还让我	-11.6857
想去	-11.6857
蚂蚁	-11.6859
所以感觉	-11.6859
烂掉了	-11.6859
的那么好	-11.686
甚至是	-11.686
的季节	-11.6861
太简单了	-11.6863
几遍	-11.6868
选择入住	-11.6871
可以吃	-11.6872
拿到后	-11.6874
与图片	-11.6876
亲人	-11.6878
▁拿到手	-11.688
又贵	-11.688
的用户	-11.6881
分钟到	-11.6881
有些旧	-11.6884
看着还不错	-11.6885
她就	-11.6886
掺	-11.6887
事业	-11.6888
老式	-11.6888
比一般	-11.6888
对外	-11.6889
是谁	-11.6891
换成了	-11.6891
是可以	-11.6897
难度	-11.6898
这个样子	-11.6899
礼盒	-11.69
重量也	-11.6901
很正常	-11.6902
为什么不能	-11.6904
安装好了	-11.6905
去实体店	-11.6906
做人	-11.6909
都比	-11.691
用了以后	-11.691
大促	-11.6912
价高	-11.6915
的景色	-11.6917
其它酒店	-11.6917
也没给	-11.6918
伟大	-11.6919
跟前台	-11.6922
▁虽然是	-11.6922
挺好看	-11.6923
新品	-11.6924
是多么	-11.6925
两三天	-11.6925
应该说是	-11.6927
图个方便	-11.6928
▁穿了	-11.6928
抢的	-11.6929
的显卡	-11.6931
解释说	-11.6932
▁玩	-11.6935
穿一次	-11.6936
这两个	-11.6936
住进去	-11.6938
让人感动	-11.6938
肮脏	-11.6941
不热情	-11.6942
四星的	-11.6942
又一次	-11.6943
到哪	-11.695
贴的	-11.6951
经常出差	-11.6952
▁使用	-11.6952
洗了头	-11.6954
微酸	-11.6955
弥补	-11.6955
刚用	-11.6957
烦躁	-11.6957
不过也	-11.6957
差差差差差差差差差差差差差差差差	-11.6957
入住这家酒店	-11.6958
地处	-11.6959
有些慢	-11.6959
晃	-11.6959
没给	-11.696
什么服务	-11.6962
▁太次了	-11.6965
▁说好	-11.6966
在宾馆	-11.6966
相差太大	-11.6967
▁朋友	-11.6967
都没法	-11.6968
不知道是什么原因	-11.697
入住后发现	-11.6971
远处	-11.6972
03	-11.6973
酒店离	-11.6974
较旧	-11.6974
是酒店	-11.6976
用这个牌子	-11.6977
▁房间太小	-11.6978
希望是正品	-11.6979
房间的隔音	-11.698
MD	-11.698
就够了	-11.6982
而且在	-11.6982
觉得还不错	-11.6982
▁5、	-11.6983
人来	-11.6983
▁价钱	-11.6987
果断差评	-11.699
垃圾中的垃圾	-11.6991
▁烂的	-11.6991
还挺	-11.6993
超烂	-11.6994
挺适合	-11.6994
有小	-11.6994
▁自从	-11.6997
水果很新鲜	-11.6997
气的	-11.6997
不是很干净	-11.6998
老人用	-11.6998
那儿	-11.6998
zW	-11.6999
给老爸买的	-11.6999
服务员还	-11.7
比较长	-11.7001
也很好看	-11.7001
买回	-11.7002
没穿	-11.7002
那么多年	-11.7004
三思	-11.7004
没有浴缸	-11.7009
好评吧	-11.701
路程	-11.7013
看来还是	-11.7013
但是京东	-11.7015
有点不方便	-11.7018
生活在	-11.702
▁不得不说	-11.7022
合上	-11.7022
▁这次买的苹果	-11.7023
第二次入住	-11.7024
这个牌子的洗发水	-11.7025
客气	-11.7026
看电子书	-11.7026
还没安装	-11.7026
苹果都	-11.7027
好坏	-11.7027
不错的一次购物	-11.7027
其实就是	-11.7028
熊	-11.7029
一书	-11.7029
都是好的	-11.7029
也应该	-11.7034
大致	-11.7036
蒙人	-11.7036
咬一口	-11.7037
昨天晚上下单	-11.7038
天的	-11.7038
好评好评	-11.7039
百搭	-11.7039
差别太大	-11.7039
和图片一样	-11.704
一点都不好用	-11.7041
留了	-11.7044
在网上买水果	-11.7045
苹果个头	-11.7045
回音	-11.7045
不匹配	-11.7046
眼镜	-11.7046
挺合适	-11.7049
做法	-11.7051
▁要是	-11.7052
▁不喝蒙牛	-11.7054
派件	-11.7054
可以打电话	-11.7054
▁设施	-11.7054
配套的	-11.7054
屏幕不错	-11.7057
新鲜水果	-11.7058
电梯口	-11.7058
给我送	-11.7058
大号	-11.7059
酒店的地理位置	-11.7062
面料柔软	-11.7063
毁了	-11.7064
艺	-11.7065
哪些	-11.7065
同等价位	-11.707
配有	-11.707
削	-11.7071
最初	-11.7071
一比	-11.7072
挑了	-11.7074
真有	-11.7074
▁不要买	-11.7077
刷了	-11.7078
打个电话	-11.7078
正规	-11.7081
我以为是	-11.7082
多块	-11.7083
或许是	-11.7083
生物	-11.7083
用了后	-11.7085
以后再也不会	-11.7085
不送货上门	-11.7086
两周	-11.7087
这件衣服	-11.7088
换系统	-11.7089
讲话	-11.7092
呼吁	-11.7093
也开始	-11.7094
秒杀的	-11.7095
继续支持	-11.7095
格调	-11.7095
和携程	-11.7098
几乎是	-11.7099
但是你	-11.71
听说是	-11.71
七八	-11.7103
通常	-11.7103
▁刚买的	-11.7103
买错了	-11.7103
积水	-11.7103
比实体店便宜	-11.7103
必然	-11.7103
烂掉	-11.7105
共享	-11.7105
个头也	-11.7106
这次又	-11.7107
灰色的	-11.7107
声音效果	-11.7107
用完后	-11.7108
▁看起来不错	-11.7108
超市买	-11.7108
二天	-11.7111
能穿	-11.7111
一口气看完	-11.7111
卡了	-11.7112
很不新鲜	-11.7113
158	-11.7113
拔掉	-11.7114
居然还有	-11.7114
没一个	-11.7114
去检测	-11.7115
▁这个是	-11.7119
不错的酒店	-11.712
恐龙	-11.7122
假如	-11.7122
服务尚可	-11.7123
留意	-11.7125
▁东东	-11.7126
有区别	-11.7126
婆婆	-11.7128
三本	-11.7128
想知道	-11.7128
省的	-11.7129
但因为	-11.7129
这么垃圾	-11.7129
房屋	-11.713
缘	-11.7131
完全不	-11.7133
限	-11.7133
街道	-11.7133
书店	-11.7133
鲜果	-11.7133
留下的	-11.7133
星级宾馆	-11.7134
插槽	-11.7134
最早	-11.7135
我和	-11.7135
骗了	-11.7135
家族	-11.7138
送赠品	-11.7139
9.6	-11.714
头发很顺	-11.714
操作起来	-11.7141
没买	-11.7142
夜市	-11.7142
▁终于	-11.7142
星饭店	-11.7142
博客	-11.7143
摔坏了	-11.7144
绝对没有	-11.7144
▁没有发票	-11.7145
行政间	-11.7146
傍晚	-11.7147
写明	-11.7148
海悦	-11.7148
不过房间	-11.7149
en	-11.7151
验	-11.7152
很臭	-11.7152
两三	-11.7154
CM	-11.7155
相处	-11.7156
集成	-11.7156
提醒大家	-11.7158
4000	-11.716
声音太小	-11.716
疑	-11.716
了几次	-11.7161
有些陈旧	-11.7162
稳	-11.7162
私人	-11.7162
预定时	-11.7164
伊利的	-11.7164
▁这火龙果	-11.7165
先生的	-11.7165
一本好书	-11.7165
就那么	-11.7166
女的	-11.7167
特仑苏	-11.7168
振	-11.7168
清扬的	-11.7171
黑号	-11.7171
不用说	-11.7173
还被	-11.7173
三个字	-11.7175
无话可说	-11.7175
有人在	-11.7175
宰	-11.7176
480	-11.7177
的男人	-11.7177
也无法	-11.7177
很快的	-11.7178
比我的	-11.7178
糟	-11.718
太不好了	-11.718
拿起来	-11.718
为你	-11.7181
酒店的餐厅	-11.7183
送皮套	-11.7183
浴室的	-11.7183
咸	-11.7184
大家千万别买	-11.7186
略小	-11.7186
航	-11.7187
设施比较陈旧	-11.7188
遮	-11.7188
这么好的	-11.7188
桌子上	-11.719
变质	-11.7191
疙瘩	-11.7191
充电口	-11.7192
有机	-11.7192
大叔	-11.7193
连锁	-11.7194
润	-11.7194
堆	-11.7195
牢	-11.7195
但由于	-11.7196
舍	-11.7196
五颗星	-11.7197
保护壳	-11.7197
1400	-11.7198
暴力	-11.72
根本就不是	-11.72
害人	-11.72
抗	-11.7201
框	-11.7201
说不上	-11.7201
抵达	-11.7201
罪	-11.7202
给携程	-11.7202
稀饭	-11.7202
是你	-11.7202
▁环境很好	-11.7202
灌	-11.7203
宾	-11.7203
态度都很好	-11.7203
灭	-11.7204
没有磕碰	-11.7205
这个裤子	-11.7205
贴近	-11.7206
蜗牛	-11.7206
呈	-11.7206
就是垃圾	-11.7206
主义	-11.7207
财	-11.7208
很特别	-11.7208
化了	-11.7209
好闻	-11.7209
抄	-11.7209
宣	-11.7209
三菱	-11.721
鼻	-11.721
厚的	-11.7211
观景	-11.7211
过去的	-11.7211
本来打算	-11.7212
浙江	-11.7212
颠	-11.7212
差距太大了	-11.7213
扭	-11.7214
拿在手上	-11.7214
螺丝	-11.7214
电力	-11.7214
橙	-11.7215
流泪	-11.7215
诗词	-11.7215
开玩笑	-11.7215
试机	-11.7216
玫瑰	-11.7216
任务	-11.7216
追剧	-11.7216
斗争	-11.7216
精华	-11.7216
学术	-11.7216
踢	-11.7216
公平定律	-11.7216
朱	-11.7216
指示	-11.7216
灾	-11.7217
绚丽	-11.7217
圾	-11.7217
凤凰	-11.7217
触控板	-11.7217
惊醒	-11.7217
吓了一跳	-11.7217
抛弃	-11.7217
汤姆	-11.7217
滥	-11.7217
袖珍	-11.7217
天花板	-11.7217
咧	-11.7217
困	-11.7217
断断续续	-11.7217
虚假宣传	-11.7218
早茶	-11.7218
题材	-11.7218
螺	-11.7218
隔着	-11.7218
失落	-11.7218
潘石屹	-11.7218
踢皮球	-11.7218
央视	-11.7218
卓越	-11.7218
登录	-11.7218
黄金	-11.7218
拜拜	-11.7218
监督	-11.7218
消遣	-11.7218
艾	-11.7218
两大两小	-11.7218
维权	-11.7218
相比之下	-11.7218
偷工减料	-11.7218
直筒	-11.7218
裤裆	-11.7218
言而总之	-11.7218
噩梦	-11.7218
期待您的下次光临	-11.7218
补丁	-11.7218
干扰	-11.7218
(∩_∩)	-11.7219
杜拉拉升职记	-11.7219
太卡了	-11.7219
试了试	-11.7219
贵重物品	-11.7219
病毒	-11.7219
小伙伴们	-11.7219
>>	-11.7219
缺失	-11.7219
不太懂	-11.7219
传记	-11.7219
依赖	-11.7219
纠正	-11.7219
该怎么	-11.722
东京	-11.722
滑动	-11.722
对这个	-11.722
友情	-11.722
吹嘘	-11.722
畅销书	-11.7221
;****	-11.7221
戳	-11.7221
7:30	-11.7221
也就罢了	-11.7221
出售	-11.7221
各类	-11.7221
一点味道都没有	-11.7221
无论从	-11.7221
原文	-11.7221
小豆豆	-11.7222
门市价	-11.7222
已经很不错了	-11.7222
进房	-11.7222
的路	-11.7223
内裤	-11.7223
挺方便	-11.7223
读一读	-11.7224
一时	-11.7224
花费	-11.7224
40%	-11.7224
胖子	-11.7224
联系方式	-11.7224
跑起来	-11.7226
入住期间	-11.7227
自动对焦	-11.7227
每个苹果都	-11.7227
啦啦啦	-11.7227
6:30	-11.7228
爸妈	-11.7228
申请退款	-11.7228
图片是	-11.7229
就应该	-11.7229
百货	-11.7229
当代	-11.7229
8:30	-11.723
蒙牛乳业	-11.723
恢复出厂设置	-11.7232
给人以	-11.7232
日期新鲜	-11.7233
在京东买东西了	-11.7233
只可惜	-11.7233
和描述的一样	-11.7233
比实体店	-11.7234
ML	-11.7235
一点也不新鲜	-11.7235
▁安装	-11.7236
插卡	-11.7236
真情	-11.7236
内置游戏	-11.7237
其间	-11.7238
摆着	-11.7238
气死人了	-11.724
太不靠谱了	-11.7241
旅	-11.7241
一班	-11.7241
两天就到了	-11.7242
四楼	-11.7243
阶段	-11.7243
黑名单	-11.7243
吃了几个	-11.7243
388	-11.7243
直观	-11.7244
把这本书	-11.7245
成长的	-11.7246
弱智	-11.7247
有阳台	-11.7247
不知道是怎么回事	-11.7248
听不清	-11.7248
改的	-11.7248
▁上次	-11.7248
热水壶	-11.7248
也太小了	-11.7249
比较好的	-11.7249
释放	-11.725
吃早饭	-11.7252
老鼠	-11.7252
优越	-11.7252
服务也还可以	-11.7253
集中	-11.7255
一整天	-11.7255
一到	-11.7256
图象	-11.7256
很烫	-11.7257
快递小哥辛苦了	-11.7258
有什么用	-11.7258
心情不好	-11.7259
全部坏掉	-11.726
无果	-11.726
西楼	-11.726
芯的	-11.7261
有宽带	-11.7261
海水	-11.7261
的设置	-11.7263
几种	-11.7264
安排在	-11.7264
洗的头发	-11.7265
走过去	-11.7265
撕开	-11.7268
▁东西一般	-11.7268
希望不要	-11.7268
给我打电话	-11.7268
水量	-11.7269
非常不新鲜	-11.7269
▁很不错的	-11.7269
断网	-11.727
东西也不错	-11.7272
要住	-11.7273
哪天	-11.7274
拿走了	-11.7274
好友	-11.7275
再者	-11.7277
贡献	-11.7279
速度很慢	-11.728
京东自营商品	-11.728
不公平	-11.728
休	-11.728
那么贵	-11.728
▁裤子很合适	-11.728
没热水	-11.7281
不必	-11.7281
▁外表	-11.7281
自我感觉	-11.7283
家庭房	-11.7284
在郑州	-11.7284
给我的感觉是	-11.7284
房间内部	-11.7285
开本	-11.7285
背着	-11.7287
太值了	-11.7287
靠马路	-11.7287
衣服不错	-11.7288
断电	-11.7289
不能买	-11.729
却被	-11.7291
但觉得	-11.7291
院子	-11.7291
能感受到	-11.7292
▁酒店设施陈旧	-11.7292
苹果很甜	-11.7292
包装很精致	-11.7295
对顾客	-11.7296
也是如此	-11.7298
客户的	-11.7301
落地	-11.7301
似乎是	-11.7301
很气愤	-11.7302
一方面	-11.7303
感谢快递小哥	-11.7306
方面的	-11.7307
只能说一般	-11.7307
只为	-11.7308
903	-11.7308
st	-11.7308
没色差	-11.7309
薄荷	-11.7309
实在不怎么样	-11.7309
先进	-11.7309
又脆	-11.731
结账的时候	-11.731
第三方软件	-11.7312
键盘手感不错	-11.7314
▁这个火龙果	-11.7314
服务员很热情	-11.7314
的缺点	-11.7315
先好评	-11.7316
人说	-11.7316
▁衣服质量	-11.7318
当地人	-11.7319
三个人	-11.732
爸爸妈妈	-11.7321
给妈妈	-11.7321
没有想象中的好	-11.7322
的表情	-11.7322
上都是	-11.7323
价格还是	-11.7325
有一家	-11.7326
的地摊货	-11.7326
都没问题	-11.7327
根本无法	-11.733
使用情况	-11.733
吸引了	-11.7331
黑黑的	-11.7331
的影响	-11.7333
回报	-11.7335
陕西	-11.7335
房间较小	-11.7336
不能刷卡	-11.7336
▁超级	-11.7337
▁本书	-11.7339
的话可以	-11.734
是不是假货	-11.7342
玩儿	-11.7342
比较硬	-11.7342
比超市便宜好多	-11.7343
自己看	-11.7344
一直没有	-11.7344
很别致	-11.7345
▁买完	-11.7345
特别慢	-11.7346
就一个字	-11.7347
头皮屑多	-11.7348
最可气的是	-11.7348
特别方便	-11.7349
三种	-11.735
▁服务态度差	-11.7356
也很甜	-11.7356
让读者	-11.7357
字母	-11.7357
日货	-11.7358
▁给爸爸买的	-11.7358
培养孩子	-11.7359
广告语	-11.736
超出	-11.7361
终于找到	-11.7361
夏新	-11.7362
是新装修的	-11.7362
下一次	-11.7362
▁刚刚收到	-11.7364
第一次买的	-11.7365
的一次购物体验	-11.7365
挺贵的	-11.7365
有点少	-11.7366
是一	-11.7366
预付	-11.7367
版型也	-11.7367
作业	-11.7369
没有水分	-11.7371
应当	-11.7372
南楼	-11.7373
去玩	-11.7373
恶心人	-11.7374
试问	-11.7375
生鲜水果	-11.7375
比较脏	-11.7377
房间隔音不好	-11.7377
进来的	-11.7378
棉的	-11.7379
好大的	-11.7379
的一种	-11.7379
服务一流	-11.7381
怀着	-11.7383
热点	-11.7383
先用	-11.7384
很无奈	-11.7384
好开心	-11.7387
名著	-11.7388
购物体验	-11.7388
品质不错	-11.7388
希望商家	-11.7388
以为会	-11.7389
又能	-11.739
真心无语	-11.739
在天津	-11.7391
很难受	-11.7393
头皮特别痒	-11.7394
▁珍爱生命	-11.7397
好油	-11.74
在全国	-11.74
库	-11.7401
朋友都说	-11.7402
可能就是	-11.7404
一个故事	-11.7406
过得	-11.7407
一下子就	-11.7409
很符合	-11.7409
大体	-11.741
完美的	-11.741
十元	-11.7412
什么问题	-11.7412
女人的	-11.7414
用于	-11.7417
用清扬	-11.7418
蒙牛的酸奶	-11.7418
乃	-11.7419
▁说真的	-11.7419
发给我的	-11.7421
比他	-11.7426
力气	-11.7427
系统的	-11.7427
第二次买	-11.7427
看它	-11.7428
啥都	-11.743
也是一样	-11.743
买了一部	-11.7431
老百姓	-11.7432
有点奇怪	-11.7434
再好	-11.7434
香气	-11.7435
洗脸	-11.7436
上方	-11.7436
但是服务	-11.7439
没有打扫	-11.7441
一带	-11.7442
自营店	-11.7442
紧靠	-11.7443
是比较	-11.7443
今天才	-11.7446
很顺畅	-11.7448
问题还是	-11.7451
扬	-11.7451
▁质量不行	-11.7451
动手	-11.7453
好香	-11.7453
不就是	-11.7454
定时	-11.7454
这个城市	-11.7455
》《	-11.7457
▁像素	-11.7457
也很清晰	-11.7458
这样的水果	-11.7462
结果我	-11.7462
的死	-11.7464
很恶心	-11.7464
▁太失望了	-11.7465
拍的时候	-11.7465
点入住	-11.7467
累了	-11.7468
由于我	-11.7468
未必	-11.747
第一次去	-11.7472
价格差不多	-11.7472
原则	-11.7473
IPAD	-11.7476
把我们	-11.7477
又开始	-11.7479
晒图	-11.748
太坑	-11.7481
很愉快	-11.7481
个小时左右	-11.7483
不是很舒服	-11.7483
了三次	-11.7484
交给	-11.7489
的技术	-11.749
没有用过	-11.749
太短	-11.7493
坏点	-11.7494
买苹果	-11.7494
第二天下午	-11.7494
刚买了	-11.7497
样子也	-11.7497
无法用	-11.7498
由此	-11.7499
招待所的	-11.7499
既然是	-11.7501
此店	-11.7502
冷链	-11.7503
的认识	-11.7506
也比较方便	-11.7506
仅有	-11.7506
来了一个	-11.7507
这可是	-11.7509
冬季	-11.7512
看多了	-11.7513
贴着	-11.7513
下次还会选择	-11.7514
盘子	-11.7515
的沙发	-11.7517
差一些	-11.7518
观看	-11.7519
▁绝对差评	-11.7523
▁内容	-11.7523
刚买回来	-11.7523
前台的服务员	-11.7523
▁京东就是快	-11.7525
628	-11.7525
没见到	-11.7525
以后还会	-11.7525
用券	-11.7526
苹果也	-11.7529
▁这次购物	-11.7529
脏了	-11.7529
▁太薄了	-11.7532
非常不舒服	-11.7534
一点不	-11.7535
件衣服	-11.7536
源	-11.7537
不用说了	-11.7537
来京东	-11.7538
▁苹果好吃	-11.7539
▁CPU	-11.754
真无语	-11.7541
包里	-11.7541
装上了	-11.7543
读的	-11.7543
特有的	-11.7543
直接扔	-11.7544
有轻微	-11.7545
洗干净	-11.7546
▁最	-11.7547
不过现在	-11.7547
现在京东	-11.7548
▁哇	-11.7548
肯	-11.755
还有那个	-11.7551
结果就是	-11.7554
壁纸	-11.7555
显示出	-11.7556
还没用过	-11.7557
的人物	-11.7559
房间的窗户	-11.756
版型很好	-11.7561
第二天中午	-11.7561
之前用过	-11.7564
动听	-11.7565
很忙	-11.7565
780	-11.7565
小冰箱	-11.7566
忽悠了	-11.7568
不保修	-11.7569
语文	-11.757
回答说	-11.757
装完	-11.7571
很暗	-11.7572
看不清	-11.7574
让我等	-11.7577
有点沉	-11.7578
月底	-11.7581
一起来	-11.7581
不是一个	-11.7582
▁不支持	-11.7583
众多	-11.7583
果品	-11.7583
还是挺不错的	-11.7583
只买	-11.7584
分辨率高	-11.7584
的女孩	-11.7586
玩王者	-11.7587
非常甜	-11.7587
真诚的	-11.7587
可以换	-11.7588
不能开	-11.7588
感触	-11.7589
不要了	-11.7591
▁第一次在京东买东西	-11.7591
▁发货速度很快	-11.7591
质量一般般	-11.7594
价格也不便宜	-11.7595
双十一买的	-11.7595
▁作者	-11.7596
红心	-11.7598
几条	-11.7598
已有	-11.7599
都是假的	-11.7604
的状态	-11.7606
这问题	-11.7612
农药	-11.7613
爱理不理	-11.7613
胆	-11.7613
正常的	-11.7615
照相机	-11.7616
的电脑	-11.7616
疯狂	-11.7617
价格太贵	-11.7617
几瓶	-11.7617
真够	-11.762
入手了	-11.7622
的不足	-11.7623
按下	-11.7624
有明显	-11.7624
算不错了	-11.7626
以后有机会	-11.7627
买了两次	-11.7629
▁三个火龙果	-11.7629
作为一款	-11.7631
东西很多	-11.7634
环节	-11.7634
值这个价	-11.7634
的路上	-11.7634
到了以后	-11.7634
能理解	-11.7635
精致的	-11.7637
等功能	-11.764
不怎么好用	-11.764
满满	-11.7643
这个火龙果	-11.7643
水单	-11.7644
得要命	-11.7648
的惊喜	-11.7649
的摄像头	-11.765
很亮	-11.765
比它	-11.7651
服务态度也不错	-11.7652
很老	-11.7653
自营商品	-11.7653
我怎么	-11.7656
地毯脏	-11.7657
还不好吃	-11.7658
给酒店	-11.766
有待	-11.7662
万豪的	-11.7662
二十分钟	-11.7663
免费宽带	-11.7665
一包	-11.7666
的健康	-11.7666
用着还可以	-11.7669
意的	-11.767
我就是	-11.7672
▁我要	-11.7673
重大	-11.7674
都贵	-11.7674
服务人员的态度	-11.7674
酒楼	-11.7677
隔了	-11.7677
不会在	-11.7681
我决定	-11.7681
好恶心	-11.7683
不买了	-11.7685
看中	-11.7686
特效	-11.7689
腿上	-11.7689
到手后	-11.769
打开就	-11.7691
爽甜	-11.7691
无窗房	-11.7692
携程订的	-11.7693
当时我	-11.7693
在其他	-11.7694
穴位	-11.7697
根本达不到	-11.7698
很响	-11.7699
交了	-11.77
变的	-11.7701
升到	-11.7703
影响了	-11.7703
是所有	-11.7705
都卡	-11.7705
通用	-11.7706
小脚	-11.7708
太实惠了	-11.7708
56	-11.7708
房间的空调	-11.7709
我的朋友	-11.7711
外观上	-11.7712
承受	-11.7714
系统后	-11.7717
想吐	-11.7718
▁多次购买了	-11.772
建议不要	-11.772
就叫	-11.7722
效果非常好	-11.7723
太高了	-11.7725
当面	-11.7727
没电了	-11.7727
味道不好	-11.7728
它了	-11.7729
02	-11.7729
不酸	-11.7729
已经不	-11.7729
说好就	-11.773
还不好	-11.7733
没看见	-11.7734
视频播放	-11.7735
对华为	-11.7735
南方	-11.7736
迫不及待	-11.7736
这才是	-11.7737
炒鸡	-11.7738
包装袋	-11.7738
劝大家	-11.7743
恶心死了	-11.7743
2)	-11.7744
看看吧	-11.7744
只得	-11.7745
频	-11.7745
一直有	-11.7745
快递包装	-11.7746
不是那么	-11.7746
与图片不符	-11.7747
对它	-11.7747
多快好省	-11.7751
▁不知	-11.7751
货不对版	-11.7753
旁边有	-11.7754
设施不错	-11.7754
▁我订的是	-11.7754
壳子	-11.7754
我们应该	-11.7755
身为	-11.7756
大小很合适	-11.7757
毫米	-11.7757
上当受骗	-11.7758
▁货品	-11.7759
挺香的	-11.7759
表扬一下	-11.7759
很负责	-11.7761
难用	-11.7761
床也	-11.7762
滑滑的	-11.7763
一天就到了	-11.7763
屋子	-11.7765
挨	-11.7765
酒店工作人员	-11.7766
无意中	-11.7766
洗起来	-11.7769
躺在床上	-11.777
▁一开始	-11.777
总体还不错	-11.7771
从小	-11.7771
返厂	-11.7772
送到的	-11.7775
小日本	-11.7775
乱七八糟	-11.7776
图片上	-11.7777
大品牌值得信赖	-11.7777
好朋友	-11.7779
洗发水都	-11.7779
打蜡	-11.778
动画片	-11.7781
这样的人	-11.7785
▁前台服务态度	-11.7786
一直都在	-11.7786
.5.	-11.7787
▁D	-11.779
才拿到	-11.7791
还算是	-11.7792
获	-11.7793
本次	-11.7795
号送到	-11.7795
总体感觉还不错	-11.7796
政策	-11.7796
华为的品质	-11.7796
好像没有	-11.7796
刚合适	-11.7798
太太	-11.78
增	-11.78
免得	-11.78
散热不好	-11.7803
下载铃声	-11.7803
自己吃	-11.7804
庭院	-11.7805
的旅客	-11.7806
还说是	-11.7807
用了一个月	-11.7807
的快乐	-11.7808
华为荣耀	-11.7809
皮薄	-11.7811
颇	-11.7811
相信京东自营	-11.7811
得到了	-11.7811
主人	-11.7813
他人	-11.7814
斜	-11.7815
感觉自己	-11.7816
却不	-11.7817
睡前	-11.7817
蛮快的	-11.7818
q	-11.7821
奉劝	-11.7823
看出	-11.7824
不理人	-11.7824
写字台	-11.7825
的尺寸	-11.7825
发热量大	-11.7825
铜锣湾	-11.7827
也很热情	-11.7827
159	-11.7828
买了三箱	-11.7828
床头灯	-11.7829
威	-11.783
还差不多	-11.783
包车	-11.7831
十个	-11.7831
多媒体	-11.7831
大概有	-11.7831
▁预装的	-11.7833
阐述	-11.7835
了一半	-11.7836
▁一点都不好用	-11.7837
▁第一次给差评	-11.7841
普通话	-11.7841
办理手续	-11.7843
都还可以	-11.7844
再有	-11.7844
▁第一次用	-11.7845
吹牛	-11.7846
手感也很好	-11.7848
蒙牛纯牛奶	-11.7849
▁什么东西	-11.7851
▁11	-11.7851
鲜明	-11.7852
一排	-11.7852
以后也	-11.7853
工作的	-11.7854
物流配送	-11.7854
就破了	-11.7859
穿着挺舒服的	-11.7859
从网上	-11.7859
男性	-11.7862
相素	-11.7863
可能有	-11.7864
解决方案	-11.7864
不高兴	-11.7866
酒店周围	-11.7866
传说	-11.7867
三条	-11.7868
申请价保	-11.7869
破烂	-11.7871
特小	-11.7871
好慢	-11.7871
用起	-11.7872
一如既往的支持	-11.7873
网点	-11.7873
性能也不错	-11.7875
出品	-11.7876
拍摄功能	-11.7876
很多人说	-11.7876
携程订房	-11.7879
作为一家	-11.7879
能上网	-11.7881
用起来不错	-11.7881
用段时间	-11.7882
总体来说不错	-11.7883
躲	-11.7883
▁最后	-11.7884
旋	-11.7884
这些都是	-11.7885
购书	-11.7886
出示	-11.7887
工地	-11.7888
的键盘	-11.7889
回头客	-11.789
也不少	-11.7895
▁根本没有	-11.7895
玩得	-11.7896
拍出的照片	-11.7897
句子	-11.7898
有一定	-11.7898
没什么意思	-11.7898
豪标	-11.7899
别再	-11.7899
何时	-11.7902
光临	-11.7903
响亮	-11.7903
我花	-11.7903
见识	-11.7904
色体恤	-11.7905
不问	-11.7905
拐	-11.7906
我入住的是	-11.7907
逆	-11.7909
一直使用	-11.791
需要用	-11.7911
深思	-11.7911
之道	-11.7911
裂开	-11.7911
zl	-11.7911
罐	-11.7912
开灯	-11.7912
预订时	-11.7912
希望可以	-11.7913
服务很	-11.7914
的那天	-11.7915
给我的感觉	-11.7918
被骗	-11.7919
竟然不	-11.792
不支持彩信	-11.792
摸索	-11.792
严重影响	-11.7921
在实体店买的	-11.7921
要求换货	-11.7921
真机	-11.7922
很专业	-11.7927
笑脸	-11.7927
服务态度非常好	-11.7928
婚姻	-11.7929
还掉色	-11.7929
个星期	-11.793
规矩	-11.793
挂着	-11.793
▁离机场近	-11.7931
可以随时	-11.7933
买的手机	-11.7933
要考虑	-11.7938
竹	-11.7939
不干	-11.794
调试	-11.7941
结论	-11.7941
今日	-11.7943
上当受骗了	-11.7943
▁确实	-11.7943
有电脑	-11.7946
触动	-11.7947
不安	-11.7947
和酒店	-11.7948
写上	-11.7949
饮用水	-11.795
裤子不错	-11.7951
才能用	-11.7951
、、、	-11.7952
到后来	-11.7953
陷	-11.7956
打电话去	-11.7956
甲	-11.7958
我再	-11.7958
房间布置	-11.7959
边的	-11.7959
开线了	-11.7959
新鲜的	-11.7959
墙面	-11.7962
诚意	-11.7962
糊弄	-11.7963
甘肃	-11.7963
栏	-11.7963
击	-11.7964
红外线	-11.7964
洲	-11.7965
在这家买	-11.7965
下来的	-11.7965
楼道里	-11.7965
清单	-11.7967
无线网卡驱动	-11.7967
键盘灯	-11.7968
灵活	-11.7968
简介	-11.7969
耗	-11.7969
陆	-11.797
年轻的	-11.797
勾	-11.797
境	-11.797
讨	-11.7971
裕	-11.7972
没有找到	-11.7972
沉稳	-11.7972
▁住了	-11.7973
大片	-11.7973
比其它	-11.7974
在附近	-11.7974
春天	-11.7975
坚决抵制	-11.7975
这价钱	-11.7975
和超市	-11.7976
单人房	-11.7976
AMR	-11.7976
冠益乳	-11.7978
扯淡	-11.7979
有点不习惯	-11.7979
群组	-11.798
兵	-11.798
误导消费者	-11.798
忽然	-11.798
司	-11.7981
太低了	-11.7981
羽	-11.7981
都给	-11.7981
田	-11.7981
每天晚上	-11.7981
没有看到	-11.7982
时代广场	-11.7982
豆腐	-11.7982
有大有小	-11.7982
越看越	-11.7982
包着	-11.7982
斧	-11.7983
让人感到	-11.7983
自私	-11.7983
推销	-11.7983
忠诚	-11.7983
弹出	-11.7983
途径	-11.7983
荒	-11.7983
郑	-11.7983
排列	-11.7984
县城	-11.7984
恒	-11.7984
流氓	-11.7984
妻子	-11.7985
服务非常差	-11.7985
不太舒服	-11.7985
有些问题	-11.7985
造假	-11.7985
打底	-11.7985
中环	-11.7985
垃圾垃圾	-11.7985
菲	-11.7985
嘉	-11.7985
护眼模式	-11.7985
菜肴	-11.7985
锦	-11.7986
收音	-11.7986
晦涩	-11.7986
扇	-11.7986
可读性	-11.7986
工资	-11.7986
叙事	-11.7986
少的可怜	-11.7986
氏	-11.7986
暑假	-11.7986
前前后后	-11.7986
启蒙	-11.7986
勒	-11.7987
态度还不错	-11.7987
地下室	-11.7987
挫	-11.7987
可玩性	-11.7987
爱氏晨曦	-11.7987
做工精良	-11.7987
第一次给京东差评	-11.7987
重要的事情说	-11.7987
周期	-11.7987
奢侈	-11.7987
acer	-11.7987
有助于	-11.7987
芯电池	-11.7987
沐浴	-11.7987
旺	-11.7987
ibm	-11.7987
jia	-11.7987
OEM	-11.7987
emui	-11.7987
互动	-11.7987
批判	-11.7987
库存	-11.7987
阴影	-11.7987
SMS	-11.7987
缓存	-11.7987
自来水	-11.7987
蟹	-11.7987
很浓	-11.7987
3-4	-11.7987
名不符实	-11.7987
面无表情	-11.7988
接触不良	-11.7988
麻将	-11.7988
枕套	-11.7988
Dell	-11.7988
空气清新	-11.7988
土豆	-11.7988
吞	-11.7988
世俗	-11.7988
预先	-11.7988
水分充足	-11.7988
清醒	-11.7988
支票	-11.7988
屋顶	-11.7988
不知不觉	-11.7989
不知什么原因	-11.7989
场合	-11.7989
排线	-11.7989
寂寞	-11.7989
我拿	-11.7989
收益	-11.7989
修养	-11.7989
光碟	-11.7989
衣橱	-11.7989
珠海	-11.7989
很准时	-11.7989
一步步	-11.7989
截屏	-11.7989
第二天中午就到了	-11.799
脏乱差	-11.799
▁送货速度	-11.799
退差价	-11.799
恢复盘	-11.799
诸多	-11.799
有点假	-11.7991
模块	-11.7991
生病	-11.7991
新浪	-11.7991
真的不赖	-11.7992
万象素	-11.7992
不知为何	-11.7992
表明	-11.7992
这段时间	-11.7993
吓死人	-11.7993
住两天	-11.7993
大家千万不要买	-11.7994
味道大	-11.7995
or	-11.7995
卫生纸	-11.7995
为证	-11.7997
价格不低	-11.7997
蒙牛集团	-11.7997
脆甜多汁	-11.7998
全五分好评	-11.7998
顺着	-11.7998
蒙牛啊	-11.7998
打了电话	-11.7999
还是很划算的	-11.7999
值得一买	-11.7999
给儿子买的	-11.8
工号	-11.8
真不怎么样	-11.8
出身	-11.8
木板	-11.8001
叫出租车	-11.8002
原装包	-11.8002
出去旅游	-11.8003
免费早餐	-11.8003
教会	-11.8003
名气	-11.8003
一幅	-11.8003
水流	-11.8003
相同的	-11.8004
所吸引	-11.8004
跟图片一样	-11.8004
通话声音	-11.8004
新机子	-11.8005
摄像功能	-11.8006
属于自己的	-11.8006
坐着	-11.8006
一公斤	-11.8007
表现出	-11.8008
▁东西好	-11.8009
无力	-11.8009
个头中等	-11.8009
丢人	-11.801
几十元	-11.801
直至	-11.801
感觉很温馨	-11.801
不太清楚	-11.8011
虽然便宜	-11.8011
略显陈旧	-11.8012
做的更好	-11.8013
IT	-11.8013
没啥问题	-11.8013
感性	-11.8013
祝你	-11.8013
凑合用吧	-11.8013
山水	-11.8015
牛肉	-11.8015
话筒	-11.8015
无声	-11.8015
打表	-11.8016
凉凉的	-11.8017
一对	-11.8017
眼里	-11.8018
触控	-11.8018
系统很流畅	-11.8019
有点距离	-11.8019
版型也不错	-11.8021
没用的	-11.8022
订不到	-11.8023
愉快的一次购物	-11.8023
DC	-11.8023
有两	-11.8024
非常吵	-11.8026
2017	-11.8027
有点不爽	-11.8027
店家服务态度很好	-11.8027
要在	-11.8027
写出来	-11.8027
其他东西	-11.8028
940	-11.8028
我就呵呵了	-11.8028
当做	-11.8029
让服务员	-11.8029
操作方便	-11.8029
打牌	-11.803
服务还行	-11.803
都是一样的	-11.803
打开包裹	-11.803
799	-11.8031
都很棒	-11.8031
品质有保证	-11.8033
我和老公	-11.8034
清甜	-11.8034
借用	-11.8035
才把	-11.8035
给了我们	-11.8036
感想	-11.8038
对京东很失望	-11.8038
真是够了	-11.8038
绝对正品	-11.8038
元一位	-11.804
请注意	-11.8042
位于市中心	-11.8042
跟酒店	-11.8042
怀疑不是正品	-11.8043
伟大的	-11.8043
▁第一次在京东	-11.8043
这些问题	-11.8044
一次次	-11.8046
早餐品种太少	-11.8046
颜色漂亮	-11.8046
五星级的	-11.8047
太忙了	-11.805
▁第二	-11.8051
千元	-11.8051
▁第一次在京东上买水果	-11.8052
多天	-11.8054
小熊	-11.8055
对照	-11.8055
的阅读	-11.8055
准确的	-11.8056
必须好评	-11.8059
快快	-11.806
!3.	-11.806
难道我	-11.8061
穿着合身	-11.8062
居家	-11.8064
这款机	-11.8065
很轻便	-11.8065
非常热情	-11.8065
别上当了	-11.8065
就能到	-11.8066
比以前的	-11.8066
个头儿	-11.8067
线路	-11.8067
▁实在是	-11.8067
特别实惠	-11.8068
再三	-11.8071
▁80	-11.8071
有点坑	-11.8072
我的头发	-11.8072
!!!!!!!!!!!	-11.8075
自提点	-11.8075
让我很失望	-11.8075
很及时	-11.8076
虽然不大	-11.8077
训练	-11.8078
打电话说	-11.8079
下次不会	-11.8079
一些问题	-11.8079
上上网	-11.808
普及	-11.8081
枕	-11.8081
过于简单	-11.8085
感觉就像	-11.8085
很讨厌	-11.8086
人间	-11.8087
▁不错啊	-11.8087
音箱	-11.8087
的一面	-11.8088
过生日	-11.8088
还好啦	-11.8089
我们这些	-11.8091
▁千万别买	-11.8092
价格在	-11.8092
快递超快	-11.8092
里面都	-11.8093
下载功能	-11.8094
买了一箱	-11.8094
小菜	-11.8094
五十	-11.8098
决	-11.8099
有啥	-11.8099
较慢	-11.81
可以看出	-11.81
也十分	-11.8101
不过是	-11.8101
248	-11.8102
来电防火墙	-11.8103
在深圳	-11.8103
农	-11.8104
酒店装修	-11.8106
这方面的	-11.8106
▁主要是	-11.8109
三星酒店	-11.811
客服态度好	-11.8111
有个性	-11.8114
老公穿着	-11.8115
的一条裤子	-11.8116
在买	-11.8119
比超市的便宜	-11.8119
的一本	-11.8121
潘婷的	-11.8124
▁补充一下	-11.8126
也比较干净	-11.8126
睡衣	-11.8126
▁第一次在网上买水果	-11.8129
▁很好的	-11.813
和服务	-11.813
两本书	-11.8131
一直以来	-11.8131
真的没有	-11.8132
蒙牛奶	-11.8132
经常买	-11.8132
送货速度非常快	-11.8133
书页	-11.8133
在施工	-11.8135
一直觉得	-11.8135
被拒绝	-11.8136
楼下有	-11.8137
▁一直都	-11.8138
好远	-11.8139
房间舒适	-11.8141
一起买了	-11.8142
的目的	-11.8143
非常清晰	-11.8143
挺划算	-11.8145
不一样的	-11.8145
感觉不是	-11.8146
得太	-11.8147
▁很好的酒店	-11.8148
打出	-11.8148
性价比一般	-11.8148
住的时候	-11.8149
又新鲜	-11.815
是真品	-11.8151
52	-11.8152
每次都要	-11.8153
也不好吃	-11.8153
还有一瓶	-11.8153
房间超大	-11.8154
▁我于	-11.8154
屏幕颜色	-11.8154
▁给老妈买的	-11.8154
所以才	-11.8155
用的很好	-11.8157
向我	-11.8157
稍大	-11.8158
很辛苦	-11.816
YY	-11.816
比较偏	-11.816
控油效果	-11.8162
大热天的	-11.8163
没空调	-11.8163
▁OUT	-11.8163
一再	-11.8165
面料舒服	-11.8165
热量	-11.8166
相应	-11.8167
没买过	-11.8167
太恶心	-11.8167
六点	-11.817
区的	-11.817
值得收藏	-11.817
推荐一下	-11.8171
▁拿到	-11.8172
但是也	-11.8175
不用再	-11.8177
永远不会	-11.8178
用过了	-11.8178
只能给	-11.8179
质量非常的好	-11.8179
待遇	-11.8188
岁半	-11.8188
在机场	-11.819
晚上就	-11.8191
▁直接	-11.8192
应该还可以	-11.8193
比较均匀	-11.8194
这种裤子	-11.8194
在京东商城	-11.8194
展会	-11.8196
无所谓了	-11.8196
是完美屏	-11.8197
配货	-11.8198
超值的	-11.8199
还得自己	-11.8199
学的	-11.8201
这次住的是	-11.8202
奶牛	-11.8203
家电	-11.8203
维持	-11.8206
上去的	-11.8206
大家看	-11.8207
可以作为	-11.8207
无疑是	-11.8208
闷热	-11.8211
味道很大	-11.8213
酒店比较旧	-11.8215
个牌子	-11.8215
开房	-11.8216
不是一般	-11.8218
奇妙的	-11.8218
合理的	-11.822
一听	-11.822
了一遍	-11.8222
和弦的	-11.8223
妈妈说	-11.8224
块的	-11.8224
是最差的	-11.8227
故事里	-11.8229
号入住的	-11.823
有余	-11.823
可以免费	-11.8231
独特的	-11.8233
不卡顿	-11.8234
很幸运	-11.8234
感觉就	-11.8235
的没话说	-11.8235
南极人	-11.8239
分钟内	-11.824
回答问题	-11.824
可以购买	-11.8241
之前在	-11.8241
做活动买的	-11.8241
特别适合	-11.8242
我想知道	-11.8243
没窗	-11.8243
想退	-11.8244
是酸的	-11.8245
平整	-11.8248
的时候还	-11.8249
想换	-11.825
佳农	-11.8251
很整洁	-11.8254
也有问题	-11.8254
收取	-11.8256
买了这么多	-11.8257
也是坏的	-11.8257
▁刚买回来	-11.8258
多出	-11.8258
通话时间	-11.826
导致我	-11.8261
超值了	-11.8262
送餐服务	-11.8263
字数	-11.8263
体现了	-11.8265
都不能用	-11.8267
冷藏的	-11.8267
刚收到货	-11.8268
因为酒店	-11.8269
此款	-11.8274
的勇气	-11.8275
搞得我	-11.8276
安装盘	-11.8276
是可以的	-11.8277
那份	-11.8277
学到	-11.8278
而且裤子	-11.8279
▁头发	-11.8282
味道和	-11.8283
第一天晚上	-11.8284
我真是	-11.8284
都破了	-11.8287
谁都	-11.8288
哥们	-11.8289
显的	-11.829
蛮喜欢	-11.8292
房间有点旧	-11.8294
受到了	-11.8294
分好评	-11.8294
基本上都是	-11.8296
▁**	-11.83
提醒我	-11.83
▁刚用	-11.83
走出	-11.83
一万	-11.8301
如果只是	-11.8301
苹果是	-11.8304
368	-11.8305
死人的	-11.8305
去屑效果	-11.8306
有点多	-11.8309
位置也	-11.8309
没给我	-11.831
▁实在	-11.8311
玩个	-11.8312
Win	-11.8312
买了很多次了	-11.8313
就让	-11.8314
作者在	-11.8314
早餐还不错	-11.8314
自己带	-11.8315
的意义	-11.8316
办入住	-11.8316
有多大	-11.8317
尚未	-11.8318
塑封	-11.8318
拿到手后	-11.8318
▁物流速度	-11.832
酸酸甜甜	-11.8322
房间内设施	-11.8323
购物方便	-11.8323
真的不好	-11.8324
视角	-11.8328
不时	-11.8329
一大半	-11.833
息	-11.833
不大好	-11.8332
唯一就是	-11.8332
真是服了	-11.8333
正赶上	-11.8335
这么多东西	-11.8336
就问	-11.8337
写的是	-11.8338
三是	-11.8338
▁穿	-11.8339
的清扬	-11.8339
经典的	-11.8339
烧水	-11.8339
东西好	-11.834
sis	-11.8342
应该不是	-11.8343
▁赠品	-11.8343
▁双十一	-11.8343
怎么穿	-11.8344
-5	-11.8345
版型不错	-11.8347
这服务	-11.8349
深深	-11.8349
布料也	-11.8351
我去的时候	-11.8351
洗完之后	-11.8352
on	-11.8352
有所改善	-11.8352
客服很耐心	-11.8354
不会再去了	-11.8354
服务员都	-11.8355
▁还没穿	-11.8357
我本来	-11.8357
睡眠	-11.8357
▁物流太慢了	-11.8359
可以放	-11.836
找他们	-11.836
没有太大	-11.836
都不好意思	-11.8361
豪华套房	-11.8362
通话平板	-11.8362
一定的	-11.8366
官网上	-11.8367
没觉得	-11.8368
将会	-11.8371
股票	-11.8371
半天才	-11.8371
下次一定	-11.8372
2004	-11.8373
很伤心	-11.8374
分数	-11.8375
百年	-11.8376
打扫房间	-11.8377
很难得	-11.8377
就是苹果	-11.8378
没有想象中的	-11.8379
▁第一次入住	-11.838
不知道怎样	-11.838
▁看起来	-11.8381
▁服务好	-11.8381
▁材质	-11.8381
268	-11.8381
的大床	-11.8383
▁衣服很好	-11.8385
究竟	-11.8385
就喜欢	-11.8386
比较晚	-11.8387
988	-11.839
凉爽	-11.8391
十分好	-11.8391
有的地方	-11.8393
也不知	-11.8393
可以通过	-11.8393
用的时候	-11.8395
一个电话	-11.8396
跟超市买的	-11.8396
词典	-11.8399
华为的手机	-11.8399
我一定	-11.84
定单	-11.84
叫他	-11.84
▁昨晚下单	-11.8401
不算太	-11.8401
但是他	-11.8402
▁活动	-11.8404
打开的	-11.8404
手机店	-11.8405
的需要	-11.8405
万分	-11.8406
打击	-11.8408
▁前台服务员	-11.8411
时不时	-11.8413
每一次	-11.8413
拉着	-11.8414
态度生硬	-11.8414
冷库	-11.8414
面积很大	-11.8416
超多	-11.8417
居然没	-11.8418
体现出	-11.842
没能	-11.8421
的经典	-11.8421
▁一如既往的好	-11.8421
很热闹	-11.8423
准备买	-11.8423
下次还会购买	-11.8424
常用	-11.8425
不人性化	-11.8426
听得	-11.8428
地摊	-11.8428
▁包装的很好	-11.8429
的那款	-11.8429
耐心的	-11.8429
下次会	-11.843
的电影	-11.8433
▁服务很差	-11.8434
点多了	-11.8435
忽悠人的	-11.8435
(3)	-11.8436
五年	-11.8438
来电时	-11.8439
在家里	-11.8439
关上	-11.8439
可不可以	-11.844
收费的	-11.8441
包了	-11.8441
严重差评	-11.8441
给顾客	-11.8442
护发	-11.8443
有黑点	-11.8444
▁轻便	-11.8444
就用了	-11.8444
说明了	-11.8445
暖风	-11.8445
。2)	-11.8445
▁一般般吧	-11.8447
人很好	-11.8447
懒得退	-11.8448
▁还不错吧	-11.8449
这只	-11.845
住到	-11.8451
调了	-11.8453
讲得	-11.8453
还算好	-11.8453
心中的	-11.8454
爱好	-11.8454
轻微	-11.8455
继续购买	-11.8456
不推荐入住	-11.8457
叫做	-11.8458
趁	-11.846
▁性价比超高	-11.8464
心的	-11.8465
好痒	-11.8466
▁一直信赖京东	-11.8466
京东越来越	-11.8466
▁XL	-11.8468
第一晚	-11.8468
想来	-11.8469
放在了	-11.847
才对	-11.847
是开的	-11.8471
▁吃了一个	-11.8472
的材质	-11.8474
宽大	-11.8476
山景	-11.8478
2012	-11.8478
三星级标准	-11.8484
我妈妈	-11.8484
洗了几次	-11.8484
烂成这样	-11.8488
到了前台	-11.8489
三百	-11.8489
都有点	-11.849
等他	-11.849
清澈	-11.849
往下	-11.849
个人比较喜欢	-11.8491
京东购买	-11.8491
这都是	-11.8491
不知道这个	-11.8492
离开了	-11.8494
▁用了两天	-11.8495
收到的货	-11.8495
前台服务员态度	-11.8498
▁商品很好	-11.8499
▁地段	-11.8499
款型	-11.8501
很有用	-11.8503
更方便	-11.8507
▁这次是	-11.8507
165	-11.8508
苦的	-11.851
各种各样的	-11.8511
品种太少	-11.8511
没有味道	-11.8512
▁东西还可以	-11.8512
还有些	-11.8513
超强	-11.8514
总经理	-11.8515
有班车接送	-11.8516
糟心	-11.8517
痒了	-11.8517
选用	-11.8517
个头小了点	-11.8519
卡片	-11.8519
早餐很好	-11.852
容易发热	-11.852
多一些	-11.8521
也知道	-11.8521
不是那种	-11.8522
找的	-11.8522
▁UT	-11.8522
层次	-11.8523
三四	-11.8524
老婆说	-11.8525
独立的	-11.8526
比较粗糙	-11.8527
纹	-11.8528
要的是	-11.8529
果皮	-11.853
实力	-11.853
洒了	-11.8532
手机就	-11.8532
的管理	-11.8532
又有了	-11.8534
浦东	-11.8535
小费	-11.8535
会选择	-11.8536
是自己	-11.8539
电池使用时间	-11.854
塑料感	-11.8541
那种感觉	-11.8542
柔	-11.8543
税	-11.8545
但是这	-11.8545
最重要	-11.8546
原厂	-11.8546
为您	-11.8546
去试试	-11.8549
乃至	-11.8549
▁快递很给力	-11.855
响应速度	-11.8551
木头	-11.8551
比想象中的	-11.8552
最后一个	-11.8553
房间硬件	-11.8553
是他的	-11.8555
还是满意的	-11.8558
道路	-11.856
230	-11.856
个半小时	-11.856
的性能	-11.856
收货了	-11.856
块钱的	-11.8561
无需	-11.8561
可接受	-11.8561
最近的	-11.8562
▁不足	-11.8562
还是挺好的	-11.8562
要大	-11.8562
一趟	-11.8562
▁京东超市	-11.8563
总体来讲	-11.8564
地位	-11.8564
拿回去	-11.8566
裂缝	-11.8567
怀疑是不是正品	-11.8567
很小个	-11.8568
内存是	-11.8568
大点的	-11.8568
的一家	-11.857
配不上	-11.857
PDA	-11.8571
可以让你	-11.8573
▁伊利	-11.8573
蚊香	-11.8577
封装	-11.8577
可以坐	-11.8578
没有反应	-11.858
口感还行	-11.858
阿尔卡特	-11.8581
之所以	-11.8581
以后买	-11.8583
有一股	-11.8586
ACER	-11.8586
▁苹果还可以	-11.8588
本本的	-11.8588
预定的是	-11.859
还算可以吧	-11.8591
两个星期	-11.8592
还是从	-11.8592
我都怀疑	-11.8593
什么质量	-11.8594
卖家服务态度好	-11.8594
房间条件	-11.8594
尺码不对	-11.8596
收到货时	-11.8596
别扭	-11.8597
的情感	-11.8597
对酒店的	-11.8597
▁收到宝贝	-11.8597
物流非常快	-11.8597
菜式	-11.8598
日下单	-11.8598
低端	-11.8599
什么都不	-11.8603
值得称赞	-11.8603
服务态度不错	-11.8604
停留	-11.8604
含早	-11.8606
不曾	-11.8607
太气人了	-11.8607
华为的质量	-11.8608
下次再去	-11.8608
没有蓝牙	-11.8608
就该	-11.8609
▁此酒店	-11.861
隔壁房间	-11.8611
都是用	-11.8612
印刷质量	-11.8612
没有房间	-11.8612
离机场很近	-11.8612
一直相信京东	-11.8614
我表示	-11.8615
没有以前	-11.8616
真心不怎么样	-11.8616
吓人	-11.8616
挺方便的	-11.8618
手印	-11.8621
早餐厅	-11.8622
真心不行	-11.8622
十块钱	-11.8623
而且感觉	-11.8623
是新的	-11.8624
用了两个月	-11.8625
屏幕就	-11.8625
所以在	-11.8625
稍微有些	-11.8626
有点冷	-11.8626
都说好	-11.8627
▁订了	-11.8629
较方便	-11.8629
选择这家酒店	-11.8629
脏东西	-11.863
▁之前买过	-11.863
▁一直用	-11.863
没有头皮屑	-11.863
深深的	-11.8631
玩游戏的	-11.8632
右侧	-11.8632
酒店管理	-11.8632
▁三	-11.8636
的人员	-11.8636
一进门	-11.8638
▁价格合适	-11.8639
希望店家	-11.864
岁的孩子	-11.864
京东活动	-11.8641
拒	-11.8641
中西	-11.8642
真不	-11.8642
大街上	-11.8643
没房了	-11.8646
用上了	-11.8648
里头	-11.865
我一个人	-11.865
浓浓的	-11.865
差到极点	-11.8651
是空的	-11.8652
▁这手机	-11.8655
的出租车	-11.8656
最小	-11.8657
都是这样的	-11.8657
安装驱动	-11.8657
性价比差	-11.8659
说有赠品	-11.8659
远了点	-11.8659
新鲜度	-11.8659
不管用	-11.8659
益	-11.8659
提及	-11.8661
刚买完就降价	-11.8662
圆通	-11.8662
肤浅	-11.8663
一直很喜欢	-11.8664
就是早餐	-11.8664
▁前台接待	-11.8668
未来的	-11.8668
上山	-11.8669
▁还说	-11.8669
连基本的	-11.867
一袋	-11.867
百万像素	-11.8672
请京东	-11.8673
京东的配送	-11.8675
流行的	-11.8675
本机	-11.8676
景观房	-11.8677
一次买了	-11.8678
服务都不错	-11.8679
▁京东就是	-11.868
如家快捷	-11.868
介绍说	-11.8682
的使用	-11.8682
残留	-11.8683
要退房	-11.8685
伤心了	-11.8685
▁貌似	-11.8687
做工粗糙	-11.8687
撤	-11.8688
送回	-11.8689
我们一行	-11.8692
的遭遇	-11.8692
了几个	-11.8694
生怕	-11.8694
▁购买	-11.8695
顶着	-11.8696
马路上	-11.8696
住这家	-11.8697
入住之后	-11.8697
不知道如何	-11.8698
还不错哦	-11.8698
打客服	-11.8699
复杂的	-11.8702
旧旧的	-11.8703
我明明	-11.8703
功能全	-11.8703
扣除	-11.8705
走廊上	-11.8707
脱落	-11.8708
维修人员	-11.8709
刺眼	-11.8709
申请了	-11.8711
愉悦	-11.8711
▁驱动	-11.8714
修好了	-11.8714
太紧了	-11.8714
的线	-11.8716
有这样	-11.8716
玩起来	-11.8717
真怀疑	-11.8718
氛围	-11.8719
实施	-11.8719
超实惠	-11.8719
酒店内部	-11.872
是他们	-11.872
分钟就到了	-11.872
▁老	-11.8722
泰	-11.8723
太好	-11.8727
鲜亮	-11.873
又多	-11.873
床单上	-11.8732
喝了蒙牛	-11.8732
可以住	-11.8732
不舍得	-11.8733
预留	-11.8735
不接	-11.8736
矛盾	-11.8736
留在	-11.8737
那么快	-11.8739
悟	-11.8739
不讲信用	-11.874
乡	-11.874
干净的	-11.8741
削皮	-11.8741
展示	-11.8742
去吧	-11.8742
更不用说	-11.8744
的游客	-11.8744
畅	-11.8746
修路	-11.8747
没说的	-11.8747
5.5	-11.8747
不仅是	-11.8747
是最棒	-11.8748
来说是	-11.8748
有任何	-11.8749
短了	-11.8749
要么就是	-11.8749
油性发质	-11.875
系统安装	-11.875
包邮	-11.875
清清楚楚	-11.8752
。7.	-11.8753
商业中心	-11.8754
幅	-11.8755
入住这个酒店	-11.8755
买了一件	-11.8756
过高	-11.8757
下次不	-11.8757
环境非常好	-11.8757
的五星级酒店	-11.8758
财富	-11.8758
要求我	-11.8758
吹风	-11.8759
市政府	-11.876
也不多	-11.8761
奉	-11.8762
掌	-11.8764
较强	-11.8764
我们对	-11.8765
参	-11.8765
和之前买的	-11.8767
充了	-11.8767
拿走	-11.8767
也近	-11.8768
退不了	-11.877
太不负责任了	-11.877
延续	-11.877
▁S	-11.8771
置	-11.8771
懒的	-11.8771
这批	-11.8773
划伤	-11.8773
创意	-11.8775
的餐厅	-11.8775
小时的	-11.8776
能让人	-11.8776
不怎么甜	-11.8776
都到了	-11.8776
用起来也	-11.8777
淘汰	-11.8777
放进去	-11.8777
总部	-11.8777
运转	-11.8779
雀巢	-11.8781
不均匀	-11.8781
反正是	-11.8781
摔坏	-11.8781
变焦	-11.8782
取件	-11.8783
什么态度	-11.8783
潘	-11.8784
手感也	-11.8785
良好的	-11.8786
插上	-11.8788
但是在	-11.8788
时才发现	-11.8789
一次性拖鞋	-11.8789
没别的	-11.8789
扰	-11.8791
▁关于	-11.8791
幼儿	-11.8793
鼻子	-11.8794
恶心的	-11.8795
搁	-11.8795
对焦	-11.8795
的基础上	-11.8795
读读	-11.8795
▁感谢您	-11.8796
夏季	-11.8796
天热	-11.8797
在车上	-11.8797
痴	-11.8799
初中	-11.8799
悦耳	-11.8799
起步价	-11.8799
周边的	-11.88
必要	-11.88
王者	-11.88
伤不起	-11.8801
向您	-11.8801
惹	-11.8801
鸭	-11.8803
这衣服	-11.8803
空白	-11.8804
期待着	-11.8804
86	-11.8805
打不通	-11.8805
很惬意	-11.8806
自定义	-11.8806
丫	-11.8806
千岛湖	-11.8807
我能	-11.8807
男票	-11.8808
这叫	-11.8809
物价	-11.8809
范围内	-11.881
京东是	-11.881
仿	-11.881
书桌	-11.881
届	-11.8811
手游	-11.8811
抬	-11.8811
途中	-11.8811
纳	-11.8811
肯定是假货	-11.8811
逛逛	-11.8811
锅炉	-11.8812
書	-11.8812
全网通	-11.8812
珍藏	-11.8812
惊呆了	-11.8813
这么做	-11.8813
术	-11.8813
一丝	-11.8813
手表	-11.8813
浅显	-11.8813
本身就	-11.8814
帽	-11.8814
赤	-11.8815
管理人员	-11.8815
理智	-11.8815
翻了翻	-11.8815
营	-11.8816
就卡	-11.8816
府	-11.8816
就是价格	-11.8816
巾	-11.8816
NEC	-11.8816
通讯	-11.8816
台阶	-11.8816
瑞	-11.8817
逃避	-11.8817
佛教	-11.8817
琴	-11.8817
演绎	-11.8817
一目了然	-11.8817
揪心	-11.8817
AAC	-11.8817
携	-11.8817
被忽悠了	-11.8818
win	-11.8818
怀孕	-11.8818
▁不知道是不是正品	-11.8818
联网	-11.8818
经销商	-11.8818
派送员	-11.8818
骑	-11.8818
陵	-11.8818
Nokia	-11.8818
生意兴隆	-11.8818
政	-11.8818
很好闻	-11.8818
保健	-11.8818
接线员	-11.8819
免费接送	-11.8819
$	-11.8819
橘子	-11.8819
贷	-11.8819
醒目	-11.8819
考察	-11.8819
轰	-11.8819
三鹿	-11.882
法律	-11.882
这么热的天	-11.882
忽	-11.882
<<	-11.882
名不虚传	-11.882
不尽人意	-11.882
性价比还是很高的	-11.882
轮渡	-11.882
泛黄	-11.882
漂白	-11.882
字里行间	-11.882
绝佳	-11.882
琢磨	-11.882
到极点	-11.882
买一送一	-11.882
感染	-11.882
▁机器和价格都不错	-11.8821
▁单果约	-11.8821
衷心期待您的再次光临	-11.8821
娓娓道来	-11.8821
昆虫	-11.8821
雨伞	-11.8821
僵硬	-11.8821
寝室	-11.8821
柠檬	-11.8821
抽烟	-11.8821
不要再京东买水果	-11.8821
悠闲	-11.8821
圆润	-11.8821
保健品	-11.8821
覆盖	-11.8821
滑稽	-11.8821
包装很严实	-11.8821
一大一小	-11.8821
如果我用这段话	-11.8821
延迟退房	-11.8821
平民	-11.8821
产业	-11.8821
框架	-11.8821
正能量	-11.8821
历程	-11.8821
量足	-11.8821
吸收	-11.8821
女主人公	-11.8821
清净	-11.8821
款式简单大方	-11.8821
惊人	-11.8822
买了五箱	-11.8822
油漆	-11.8822
更何况	-11.8822
用途	-11.8822
居民区	-11.8822
华美达	-11.8822
雕	-11.8822
莲蓬头	-11.8822
邮箱	-11.8822
举动	-11.8822
言语	-11.8822
丧	-11.8822
以前在超市买的	-11.8822
唯一遗憾的是	-11.8822
难题	-11.8822
混合	-11.8822
自觉	-11.8822
毒品	-11.8823
洁净	-11.8823
老酒店	-11.8823
神器	-11.8823
油性头发	-11.8823
狗狗	-11.8823
活力	-11.8823
沿着	-11.8823
碰撞	-11.8823
心寒	-11.8823
烤漆面	-11.8823
贴上去的	-11.8823
予以	-11.8824
充实	-11.8824
协助	-11.8824
约定	-11.8824
烂果	-11.8824
不解	-11.8824
音量键	-11.8825
精心	-11.8825
鄙视之	-11.8825
步骤	-11.8825
号才收到	-11.8825
没有想象中好	-11.8826
html	-11.8826
窗外景色	-11.8826
一分钱	-11.8827
无烟楼层	-11.8827
直接上图	-11.8827
商务标间	-11.8827
非常贴心	-11.8828
外观大气	-11.8828
值得一去	-11.8828
号下的订单	-11.8828
摩擦	-11.8828
老是死机	-11.8829
听不懂	-11.8829
KB	-11.8829
赶时间	-11.8829
声称	-11.883
想必	-11.883
一件事情	-11.883
电池很耐用	-11.883
的快	-11.883
头皮屑特别多	-11.883
效果很不错	-11.8831
性价比很低	-11.8831
号才送到	-11.8831
教室	-11.8831
虽小	-11.8831
今天中午就收到了	-11.8831
管子	-11.8832
去机场方便	-11.8832
服务较好	-11.8834
郁闷死了	-11.8834
比较有特色	-11.8834
屏幕比例	-11.8834
比较偏僻	-11.8834
单早	-11.8834
几十年	-11.8834
应该算是	-11.8834
快递员服务态度很好	-11.8835
不断地	-11.8835
吓一跳	-11.8835
个头适中	-11.8835
膏	-11.8836
▁宝贝质量很好	-11.8836
的优惠	-11.8837
提前退房	-11.8837
数次	-11.8837
色差太大	-11.8837
调货	-11.8837
应该不是正品	-11.8837
象个	-11.8838
收不到	-11.8838
客服态度也	-11.8838
包装很精美	-11.8839
车费	-11.8839
颇为	-11.8839
下次还会继续购买	-11.884
节日	-11.884
操作简单	-11.884
时间久了	-11.884
老用户	-11.8841
部队	-11.8841
便宜很多	-11.8842
真的不敢恭维	-11.8842
组成	-11.8842
相差太远	-11.8843
看过之后	-11.8843
但就是	-11.8844
打王者荣耀	-11.8844
隔音效果不好	-11.8844
```	-11.8845
还算过得去	-11.8846
其实我	-11.8847
认真负责	-11.8847
克的	-11.8848
非常合身	-11.8848
客服态度也很好	-11.8848
恰好	-11.8848
之感	-11.8849
没办法了	-11.8849
其他都还好	-11.8849
只能自己	-11.885
洗过之后	-11.885
卖家态度很好	-11.885
内存容量	-11.885
▁裤子穿着很舒服	-11.8851
让我对	-11.8851
信号差	-11.8851
最要命的是	-11.8852
老了	-11.8853
打开窗户	-11.8853
天内	-11.8853
买错	-11.8853
好准时	-11.8853
不打	-11.8854
没有一个坏的	-11.8854
一丁点	-11.8854
下次还住	-11.8854
最不满意的一次购物	-11.8854
好的酒店	-11.8856
的房型	-11.8856
山寨	-11.8856
说的那样	-11.8856
可乐	-11.8856
的脸	-11.8857
的个性	-11.8857
唯一的缺点就是	-11.8857
可我	-11.8858
之路	-11.8858
最大的优点	-11.8858
信号好	-11.8858
质量保证	-11.8859
在超市买的	-11.8859
送货很及时	-11.8859
电话客服	-11.8859
宰客	-11.8859
听听	-11.886
包装仔细	-11.886
慎重考虑	-11.886
这些书	-11.886
书签	-11.886
要我们	-11.886
膜都没有	-11.8862
餐厅用餐	-11.8862
少有的	-11.8863
还要好	-11.8863
穿上挺舒服的	-11.8863
不长	-11.8863
才下单	-11.8865
总体感觉还是不错的	-11.8866
小东西	-11.8866
▁特别好	-11.8867
连拍	-11.8867
为难	-11.8867
个例	-11.8868
第一次见	-11.8868
:1)	-11.8869
卫生间小	-11.8869
用起来很方便	-11.887
洗发水很好	-11.887
有点小失望	-11.887
▁味道很好	-11.8871
读懂	-11.8871
去吃	-11.8872
要差	-11.8872
运气好	-11.8872
受气	-11.8872
的自助餐	-11.8873
赠品呢	-11.8873
出生	-11.8874
慢慢地	-11.8875
蛮好吃的	-11.8876
拆开后	-11.8876
建议别买	-11.8877
的网购	-11.8878
不实	-11.888
大理	-11.888
都是头皮屑	-11.8881
性能也	-11.8882
较近	-11.8883
为准	-11.8883
支持蒙牛	-11.8883
说明一下	-11.8884
房间干净整洁	-11.8884
房间还行	-11.8884
▁平板收到了	-11.8885
集成显卡	-11.8885
总体感觉还可以	-11.8886
下次还是	-11.8887
书后	-11.8887
没洗干净	-11.8888
没在意	-11.8888
都是很	-11.8888
的店	-11.8889
强行	-11.8891
很详细	-11.8892
这个标签	-11.8893
全家人	-11.8894
这也就算了	-11.8894
▁感觉还可以	-11.8895
▁发热量	-11.8896
早餐太差	-11.8899
掉下来了	-11.8899
对手	-11.89
节奏	-11.89
描写的	-11.89
▁不错的苹果	-11.89
点菜	-11.8901
也不管	-11.8901
这是在	-11.8902
少了一个	-11.8902
找我	-11.8902
味道不一样	-11.8904
下次再来买	-11.8904
▁本来是	-11.8905
的错误	-11.8906
都没了	-11.8907
上个月	-11.8907
入住前	-11.8907
号就	-11.8907
寄回来	-11.8908
定房	-11.8908
接受不了	-11.891
开水	-11.8911
苹果味	-11.8912
没有贴膜	-11.8913
蓝牙功能	-11.8913
实在不行	-11.8913
之地	-11.8913
输出	-11.8915
难得的	-11.8915
尝了	-11.8916
每箱	-11.8917
总体还是不错的	-11.8918
耳机也没有	-11.8919
再说了	-11.892
离店时	-11.892
很短	-11.8921
给我说	-11.8921
适用于	-11.8922
挺高	-11.8922
居然连	-11.8924
不一	-11.8927
我不是	-11.8928
还没有收到	-11.8929
有点担心	-11.893
服务人员态度	-11.893
住房	-11.893
一直在京东购物	-11.893
又降了	-11.8932
果小	-11.8932
东西还可以	-11.8933
的答案	-11.8935
很红	-11.8936
中路	-11.8936
▁非常棒	-11.8936
见到的	-11.8937
五斤	-11.8938
感觉很差	-11.8938
还是自己	-11.8938
▁衣服质量很好	-11.8941
打车到	-11.8941
只知道	-11.8942
岁的女儿	-11.8942
也不至于	-11.8942
往上	-11.8943
给一颗星	-11.8943
390	-11.8943
两款	-11.8944
价格还贵	-11.8944
说服	-11.8945
真品	-11.8945
突然发现	-11.8946
时钟	-11.8946
▁收到苹果	-11.8949
交通还算方便	-11.8949
在网上看到	-11.8951
大大小小	-11.8951
质量和	-11.8951
算大	-11.8952
结果却	-11.8953
没有必要	-11.8954
他们酒店	-11.8954
楼下就是	-11.8954
为好	-11.8955
买了一堆	-11.8955
订购了	-11.8956
实用的	-11.8957
比较宽敞	-11.8957
也不送	-11.8957
服务员素质	-11.8958
奶茶	-11.8959
换回来	-11.8959
去读	-11.8959
一定要住	-11.8959
普通标间	-11.896
非常少	-11.896
新奇	-11.896
很礼貌	-11.896
通过携程订的	-11.8961
设施有点旧	-11.8962
只在	-11.8963
▁老婆	-11.8963
拍照时	-11.8964
两分钟	-11.8964
也很实惠	-11.8966
吃货	-11.8966
上述	-11.8967
装不上	-11.8969
希望能改进	-11.8969
▁感谢您的点评	-11.897
按一下	-11.897
尺码也	-11.897
交通不方便	-11.8971
很有帮助	-11.8973
用户体验	-11.8974
穿插	-11.8975
当天下午	-11.8975
搞到	-11.8975
非常感动	-11.8975
可以做	-11.8976
把你	-11.8977
反应挺快	-11.8978
比较热情	-11.898
很滑	-11.8981
京东商品	-11.8983
是怎么回事	-11.8983
的本	-11.8985
问了一下	-11.8986
▁不知道是不是	-11.8988
长短	-11.8989
到现在还没	-11.8989
有点长	-11.8989
水果也	-11.8989
相信我	-11.8989
不到一个月	-11.8989
不如说是	-11.8991
▁买了就降价	-11.8991
没有多少	-11.8991
而且不	-11.8992
华圣	-11.8992
作者对	-11.8992
作了	-11.8993
从而	-11.8993
新楼	-11.8994
我们可以	-11.8995
账号	-11.8996
真的很好吃	-11.8996
还剩	-11.8996
死板	-11.8996
内置了	-11.8997
因为在	-11.8997
当天到	-11.8998
▁刚开始	-11.8998
竟然还有	-11.8999
小地方	-11.9
太假	-11.9
服务也差	-11.9001
真的很划算	-11.9001
电源插座	-11.9004
非常之	-11.9005
著名的	-11.9005
做工还可以	-11.9006
有点贵了	-11.9007
手机功能	-11.9008
只用	-11.901
超市的	-11.901
一开	-11.901
▁尺寸	-11.9012
有买到	-11.9012
不接受	-11.9012
书中的内容	-11.9013
茶餐厅	-11.9013
酒店的管理	-11.9014
也就那样	-11.9014
▁活动时买的	-11.9015
窗外就是	-11.9016
▁看着还行	-11.9017
散热还可以	-11.902
到下午	-11.9023
送过来的时候	-11.9023
和手机	-11.9023
很有档次	-11.9024
详细的	-11.9024
▁口感	-11.9027
副理	-11.9027
▁昨天晚上	-11.9028
味道也一般	-11.9028
设置了	-11.9028
310	-11.9029
设施都	-11.903
电梯里	-11.903
包装都	-11.9032
豪华客房	-11.9032
运行速度很快	-11.9032
用个	-11.9032
▁一分都不想给	-11.9032
如果你是	-11.9032
买了一本	-11.9033
价值观	-11.9034
也很好吃	-11.9034
这次真的	-11.9035
喜欢这本书	-11.9035
足足等了	-11.9036
煎蛋	-11.9037
的节奏	-11.9037
让客户	-11.9037
等问题	-11.9039
▁上午下单	-11.9039
厚款	-11.904
是非常	-11.9041
打电话给客服	-11.9041
怎么搞的	-11.9042
很合理	-11.9043
态度还	-11.9044
到大堂	-11.9045
只收到	-11.9045
▁包装盒	-11.9045
不齐	-11.9046
房间都	-11.9047
▁商品不错	-11.9048
的显示	-11.9049
鞋子	-11.9049
昆明	-11.9051
▁用了一个月	-11.9051
问酒店	-11.9051
电蚊香	-11.9052
你们也	-11.9054
京东真的	-11.9054
最让人	-11.9055
没赶上	-11.9056
封口	-11.9057
坏掉的	-11.9057
穿上很好看	-11.9058
自有	-11.9059
才搞定	-11.9059
我就不说了	-11.906
都能听到	-11.9061
的成功	-11.9062
不一样了	-11.9063
创	-11.9063
没什么感觉	-11.9063
能达到	-11.9064
▁还没	-11.9064
不同意	-11.9065
快要	-11.9065
▁订的是	-11.9066
价格也不错	-11.9067
和我说	-11.9067
零星	-11.9068
一查	-11.9068
相当的不错	-11.9068
不亮	-11.907
一头	-11.9072
越好	-11.9073
市话	-11.9073
算不错的	-11.9073
居然会	-11.9074
没发	-11.9077
▁总体感觉还不错	-11.9077
版型好	-11.9078
不够甜	-11.9079
我预定的	-11.908
丢掉	-11.9081
让我感觉	-11.9082
看清楚	-11.9082
而且也	-11.9084
买华为	-11.9084
有水	-11.9085
活动给力	-11.9086
天地	-11.9088
去换	-11.9088
取得	-11.9088
蛮大的	-11.9089
。9、	-11.9089
酒店客房	-11.909
他们是	-11.9091
比想象中的好	-11.9093
比较陈旧	-11.9093
快递小哥服务	-11.9093
▁给老爸买的	-11.9093
服务态度也	-11.9094
很多头屑	-11.9095
了一晚上	-11.9096
▁苹果新鲜	-11.9096
▁2:	-11.9099
京东买了	-11.9099
串	-11.91
逊色	-11.9101
先到	-11.9101
我的心	-11.9102
畸形	-11.9102
豪华商务房	-11.9102
房间的门	-11.9103
▁双十一买的	-11.9108
在超市买	-11.9108
后来就	-11.9108
好呢	-11.911
就送来了	-11.9111
发给	-11.9112
倒是不错	-11.9114
都没人	-11.9115
搞定了	-11.9115
有两种	-11.9116
很温暖	-11.9116
讲的是	-11.9117
的事实	-11.9118
颜色没有色差	-11.9118
没有坏点	-11.9119
出去吃	-11.912
京东自营店	-11.912
提了	-11.9123
▁我是在	-11.9124
我这是	-11.9124
之前用的	-11.9125
音乐播放	-11.9125
能找到	-11.9126
躺	-11.9127
没仔细看	-11.9128
特别感谢	-11.9129
抢了	-11.9129
配送速度快	-11.9132
试一试	-11.9132
的话题	-11.9133
看到过	-11.9133
很多问题	-11.9136
▁买贵了	-11.9137
可以放心购买	-11.9137
▁以为	-11.9139
▁用了几次	-11.914
再来评论	-11.914
青的	-11.9141
福利	-11.9142
前台经理	-11.9142
这个机器	-11.9143
对于我这种	-11.9144
说真的	-11.9144
经常用	-11.9144
▁国产	-11.9146
▁料子不错	-11.9149
还说什么	-11.915
房间价格	-11.915
旅行社	-11.915
▁哈哈哈	-11.915
单上	-11.9155
前台服务差	-11.9157
▁住过	-11.9157
豪华单人间	-11.9157
都不大	-11.9157
完全不同	-11.9158
退货麻烦	-11.9159
多好	-11.916
酒店里的	-11.9161
真的不怎么样	-11.9162
▁换	-11.9162
附楼	-11.9163
以后才	-11.9166
▁发热	-11.9166
唯	-11.9169
凡是	-11.9169
每间房	-11.9171
图画书	-11.9172
他们家的	-11.9176
我怀疑	-11.9176
▁真垃圾	-11.9176
分期	-11.9178
没发货	-11.9178
与描述	-11.918
才入住	-11.9181
房间内的设施	-11.9181
最失败的一次	-11.9181
不能把	-11.9182
店家服务	-11.9184
实际使用	-11.9185
前台居然	-11.9185
穿上也	-11.9185
人生中	-11.9186
一模一样的	-11.9186
▁用了一段时间了	-11.9186
我一个	-11.9186
有害	-11.9186
宾馆里	-11.9186
真心不好	-11.9187
第二天上午	-11.9187
一个问题	-11.9187
太牛了	-11.9188
点开始	-11.9188
工业	-11.9188
▁东西还没用	-11.9189
没水分	-11.919
5)	-11.919
也罢	-11.919
牌会	-11.9193
▁垃圾垃圾	-11.9193
中国人的	-11.9193
用的不错	-11.9195
要高	-11.9196
so	-11.9196
相当方便	-11.9197
送来时	-11.9198
对于酒店	-11.9198
有一个亮点	-11.9199
▁这次入住	-11.92
的司机	-11.9201
有骚扰电话	-11.9201
缩	-11.9201
▁如果可以	-11.9202
略差	-11.9202
一点也不好	-11.9202
刚好合适	-11.9203
烂了一个	-11.9205
如果对	-11.9207
四岁	-11.9208
▁衣服收到	-11.921
要加	-11.921
延住	-11.921
闹钟功能	-11.9211
有进步	-11.9211
初学者	-11.9212
收到快递	-11.9213
▁然后	-11.9214
亮度高	-11.9214
解决办法	-11.9217
在地上	-11.9219
认真的	-11.9219
还没收到货	-11.9219
▁送过来	-11.922
面馆	-11.9221
配送快	-11.9222
很不错哦	-11.9223
6、	-11.9224
苹果味道不错	-11.9226
为人	-11.9226
问她	-11.9227
浴缸里	-11.9227
很深	-11.9227
再也不用	-11.9228
不能打电话	-11.9231
我们这里	-11.9232
一开门	-11.9232
那边的	-11.9233
房间设施还可以	-11.9236
一天半	-11.9237
▁买这本书	-11.9238
提醒一下	-11.924
登记入住	-11.924
太坑人	-11.924
偶尔会	-11.9246
烂货	-11.9246
性价比可以	-11.9247
稳定性	-11.9248
▁服务不好	-11.9252
差好多	-11.9252
点就到了	-11.9254
办手续	-11.9256
还会继续	-11.9256
比较乱	-11.9257
▁感觉像	-11.9258
好点的	-11.9259
服务态度也非常好	-11.9259
买成	-11.9259
太厉害了	-11.926
上写的	-11.9262
去酒店	-11.9263
噪音很大	-11.9264
质量不怎么样	-11.9264
6.2	-11.9268
适宜	-11.9268
都不送	-11.9274
把这个	-11.9274
杠杠滴	-11.9274
我用过	-11.9276
施	-11.9276
价格有点贵	-11.9278
还原	-11.9279
换回	-11.9279
不做	-11.928
华为品质	-11.9283
附带	-11.9284
伙伴	-11.9284
东西还	-11.9284
▁漏了	-11.9285
下午到	-11.9288
晚点	-11.9289
描述的	-11.9291
很真实	-11.9291
被别人	-11.9291
没有头屑	-11.9292
一个好的	-11.9295
并无	-11.9295
▁房间干净	-11.9295
无法下载	-11.9295
小故事	-11.9296
真的想	-11.9298
感觉不	-11.9299
个头有点小	-11.9301
质保	-11.9301
订的房间	-11.9304
就变	-11.9304
失败的购物	-11.9305
也不方便	-11.9305
大腿	-11.9306
面子	-11.9306
好好好好好好好好好好好好好好好好	-11.9307
正门	-11.9309
不给我	-11.9309
是一部	-11.931
加内存	-11.931
充电接口	-11.9312
真的不行	-11.9312
看个	-11.9313
我和朋友	-11.9313
大半夜	-11.9314
跟图	-11.9314
还痒	-11.9314
▁可以的	-11.9317
确是	-11.9322
打电话要	-11.9323
为了方便	-11.9323
坑人啊	-11.9324
磨砂	-11.9324
▁还没使用	-11.9325
访	-11.9326
爸爸很喜欢	-11.9326
查了一下	-11.9327
最烂的	-11.9328
就来了	-11.9329
小小	-11.9329
员工的	-11.933
储存卡	-11.9332
儿子喜欢	-11.9334
四种	-11.9334
就是放心	-11.9335
先后	-11.9335
没赠品	-11.9335
不含	-11.9337
送东西	-11.9337
准备好	-11.9337
感觉不爽	-11.9338
离火车站很近	-11.934
但对	-11.934
有时会	-11.9341
用吧	-11.9342
但价格	-11.9344
但是因为	-11.9344
在进行	-11.9346
还住	-11.9347
答复是	-11.935
但有	-11.935
你能	-11.935
不是我	-11.935
▁这个洗发水	-11.9351
但我觉得	-11.9351
候	-11.9354
酒店的空调	-11.9356
送完了	-11.9357
客服让我	-11.9357
都挺	-11.9358
对蒙牛	-11.9359
是很好	-11.936
双人间	-11.9361
▁位置很好	-11.9361
就不行了	-11.9361
到了之后	-11.9363
住住	-11.9363
被单	-11.9365
书写	-11.9366
说不清	-11.9368
喜欢在京东买东西	-11.9369
用手	-11.937
大家也	-11.937
发出的	-11.9372
用了这个	-11.9373
房间还是	-11.9373
下午三点	-11.9374
不配	-11.9379
套盒	-11.9379
▁快递给力	-11.9379
▁还没有	-11.938
时买的	-11.9381
都没有了	-11.9381
很出色	-11.9381
赞赞赞赞赞赞	-11.9381
该产品	-11.9382
们的	-11.9382
质量没问题	-11.9383
上个	-11.9385
也太差了	-11.9389
丽江	-11.9389
但实际上	-11.939
千多	-11.939
很全面	-11.9391
包装精致	-11.9391
躺在	-11.9392
我的卡	-11.9392
▁性价比比较高	-11.9392
碰到了	-11.9393
看中了	-11.9394
▁平板很好	-11.9397
▁这家	-11.9398
有霉味	-11.9399
差不多了	-11.94
选择的	-11.9401
看包装	-11.9401
甘	-11.9401
生姜洗发水	-11.9401
寄到	-11.9402
高级大床房	-11.9403
也不小	-11.9403
如果再	-11.9404
速度杠杠的	-11.9405
光亮	-11.9405
早餐也很丰富	-11.9406
▁服务态度很好	-11.9406
有多好	-11.9406
再评价	-11.9407
高贵	-11.9407
采用的是	-11.9407
房间有异味	-11.9411
试验	-11.9411
和小	-11.9412
其它都	-11.9412
也没问题	-11.9413
好找	-11.9413
英文的	-11.9413
孩子也	-11.9414
自己看吧	-11.9415
谁说	-11.9415
述	-11.9415
把他	-11.9415
给五星	-11.9417
用什么	-11.9417
买个手机	-11.942
为什么这么	-11.9421
▁快递太慢	-11.9422
学会了	-11.9422
买衣服	-11.9424
酒店服务不错	-11.9426
▁外型	-11.9426
只觉得	-11.9426
一次比一次差	-11.9429
写书	-11.943
情况下	-11.9431
▁R	-11.9433
很优惠	-11.9434
一如既往的快	-11.9434
京东应该	-11.9434
向上	-11.9436
▁刚买了	-11.9436
苹果大小均匀	-11.9436
穿的很舒服	-11.9437
周五	-11.9437
以后还来	-11.9439
一贯的	-11.944
收到的是	-11.9441
还要买	-11.9443
这次去	-11.9443
就是卫生间	-11.9443
神奇的	-11.9444
怪我	-11.9445
极小	-11.9446
挺舒服	-11.9447
第二个了	-11.9447
▁这平板	-11.9448
承诺时间	-11.9448
为客人	-11.945
▁快递速度	-11.945
超时	-11.9451
瓶身	-11.9452
遗忘	-11.9453
打造	-11.9454
的点评	-11.9456
分为	-11.9456
九点	-11.9457
是十分	-11.9457
保温	-11.9458
IC	-11.9458
服务员就	-11.9459
国庆	-11.9461
房间号	-11.9463
这次的购物	-11.9463
▁东西还行	-11.9465
到市区	-11.9468
关不上	-11.9468
人了	-11.9468
买回来后	-11.9471
今天中午就到了	-11.9472
拿货	-11.9472
质量很棒	-11.9474
刚好合身	-11.9475
不打算	-11.9477
可以玩	-11.9477
非常完美	-11.9478
▁A	-11.9479
待机时间太短	-11.9479
跟他	-11.9479
一个地方	-11.948
等了好几天	-11.948
119	-11.948
非常糟糕	-11.9481
没有错	-11.9483
码子	-11.9483
想起来	-11.9483
质量有问题	-11.9485
是破的	-11.9486
码数偏大	-11.9486
她用	-11.9487
Wifi	-11.9487
是件	-11.9488
瘦了	-11.9489
影像	-11.949
说它	-11.949
呃	-11.949
萍果	-11.9492
物流特别快	-11.9493
不能装	-11.9493
所言	-11.9493
和图片不一样	-11.9495
好一点的	-11.9497
这部手机	-11.9497
的痛苦	-11.9498
都得	-11.9498
宏辉果蔬	-11.9499
快递小哥很给力	-11.95
的牛奶	-11.95
没有车	-11.95
一分都不想给	-11.9501
几样	-11.9502
页面上	-11.9503
珍爱生命	-11.9504
呵呵哒	-11.9507
▁这款平板	-11.9508
很正	-11.9508
太偏	-11.951
的变化	-11.951
很完整	-11.951
买了几次了	-11.9511
有热水	-11.9511
快递慢	-11.9512
不会再去	-11.9515
随手	-11.9515
是个不错的选择	-11.9515
拽	-11.9516
7、	-11.9516
压根	-11.9517
精油	-11.9517
得京东豆	-11.9517
空气不好	-11.9518
凸	-11.9519
习惯好评	-11.9519
妈妈的	-11.9519
社	-11.9519
有一箱	-11.952
还帮我	-11.952
给朋友买的	-11.9521
!!!!!!!!!!!!!	-11.9521
预装系统	-11.9524
算起来	-11.9525
真是郁闷	-11.9525
包装太差	-11.9527
信赖京东自营	-11.9528
真是坑	-11.953
看法	-11.9532
产生了	-11.9533
一进	-11.9533
花屏	-11.9533
面料好	-11.9534
一星给快递	-11.9535
年前的	-11.9536
手法	-11.9536
大个的	-11.9536
休假	-11.9537
满意的购物	-11.9539
描述一样	-11.9539
纽扣	-11.9539
吃不了	-11.954
都方便	-11.954
离西湖	-11.954
的意识	-11.9542
我连	-11.9542
大打折扣	-11.9542
声响	-11.9543
3999	-11.9543
房间的装修	-11.9544
都是正品	-11.9545
的白色	-11.9545
上菜	-11.9546
吵得	-11.9547
我只想说	-11.9547
不知道能不能	-11.9547
▁款式不错	-11.955
买了三件	-11.9552
号房间	-11.9553
爱上了	-11.9554
少了很多	-11.9556
渍	-11.9556
不过因为	-11.9557
爱你	-11.9557
不住了	-11.9557
还给了	-11.9558
根本就没	-11.9559
可看	-11.9559
对自己的	-11.9559
敦煌	-11.9562
影响到	-11.9566
的东西了	-11.9568
点去	-11.9571
含早餐	-11.9571
样式不错	-11.9571
农民	-11.9572
一大早就	-11.9572
找了个	-11.9575
徐州	-11.9576
两盒	-11.9576
信京东	-11.9578
的快捷键	-11.958
[...]
